{"<s>":0,"<pad>":1,"</s>":2,"<unk>":3,"<mask>":4,"?":5,"a":6,"d":7,"e":8,"h":9,"i":10,"l":11,"n":12,"o":13,"r":14,"s":15,"t":16,"u":17,"—":18,"―":19,"‘":20,"’":21,"“":22,"”":23,"…":24,"、":25,"。":26,"「":27,"」":28,"一":29,"丁":30,"七":31,"万":32,"丈":33,"三":34,"上":35,"下":36,"不":37,"与":38,"丐":39,"且":40,"世":41,"东":42,"丝":43,"两":44,"严":45,"个":46,"中":47,"临":48,"丹":49,"为":50,"主":51,"丽":52,"举":53,"乃":54,"久":55,"么":56,"义":57,"之":58,"乎":59,"乐":60,"乔":61,"乘":62,"九":63,"也":64,"书":65,"乱":66,"了":67,"事":68,"二":69,"于":70,"云":71,"五":72,"些":73,"交":74,"亦":75,"亮":76,"亲":77,"人":78,"什":79,"仇":80,"今":81,"仍":82,"从":83,"他":84,"付":85,"仙":86,"代":87,"令":88,"以":89,"们":90,"仰":91,"件":92,"任":93,"份":94,"仿":95,"伏":96,"众":97,"伙":98,"会":99,"传":100,"伤":101,"伯":102,"伸":103,"似":104,"但":105,"位":106,"低":107,"住":108,"体":109,"何":110,"余":111,"佛":112,"作":113,"你":114,"佩":115,"使":116,"依":117,"侠":118,"侧":119,"侯":120,"便":121,"保":122,"俞":123,"信":124,"俱":125,"倒":126,"倘":127,"候":128,"假":129,"偏":130,"做":131,"停":132,"偷":133,"傅":134,"像":135,"僧":136,"儿":137,"兄":138,"充":139,"先":140,"光":141,"免":142,"入":143,"全":144,"八":145,"公":146,"六":147,"兰":148,"关":149,"兴":150,"兵":151,"其":152,"内":153,"再":154,"写":155,"军":156,"冰":157,"冲":158,"决":159,"况":160,"冷":161,"准":162,"凌":163,"凝":164,"几":165,"凡":166,"凤":167,"凶":168,"出":169,"击":170,"刀":171,"刃":172,"分":173,"切":174,"刘":175,"则":176,"刚":177,"利":178,"别":179,"到":180,"制":181,"刺":182,"刻":183,"前":184,"剑":185,"力":186,"功":187,"加":188,"动":189,"劲":190,"势":191,"包":192,"化":193,"北":194,"十":195,"千":196,"半":197,"华":198,"卓":199,"单":200,"南":201,"卫":202,"危":203,"即":204,"却":205,"厅":206,"厉":207,"原":208,"去":209,"又":210,"及":211,"友":212,"双":213,"反":214,"发":215,"叔":216,"取":217,"受":218,"变":219,"口":220,"古":221,"句":222,"另":223,"只":224,"叫":225,"可":226,"台":227,"右":228,"叶":229,"号":230,"司":231,"叹":232,"吃":233,"各":234,"合":235,"同":236,"名":237,"后":238,"吐":239,"向":240,"吓":241,"吗":242,"君":243,"吟":244,"否":245,"吧":246,"听":247,"吴":248,"吸":249,"吹":250,"呀":251,"呆":252,"告":253,"呢":254,"周":255,"呼":256,"命":257,"和":258,"咬":259,"咱":260,"哈":261,"响":262,"哥":263,"哪":264,"哭":265,"哼":266,"唐":267,"啊":268,"啦":269,"喃":270,"喜":271,"喝":272,"嘴":273,"器":274,"四":275,"回":276,"因":277,"围":278,"国":279,"图":280,"圆":281,"土":282,"在":283,"地":284,"场":285,"均":286,"坏":287,"坐":288,"块":289,"垂":290,"城":291,"堂":292,"墙":293,"壁":294,"士":295,"声":296,"处":297,"备":298,"复":299,"外":300,"多":301,"夜":302,"够":303,"大":304,"天":305,"太":306,"夫":307,"失":308,"头":309,"夺":310,"奇":311,"奔":312,"女":313,"她":314,"好":315,"如":316,"妇":317,"妈":318,"妙":319,"妹":320,"妻":321,"姊":322,"始":323,"姐":324,"姑":325,"姓":326,"威":327,"娇":328,"娘":329,"婆":330,"子":331,"孔":332,"字":333,"孙":334,"孤":335,"学":336,"孩":337,"宁":338,"它":339,"守":340,"安":341,"完":342,"官":343,"定":344,"宝":345,"实":346,"客":347,"宫":348,"害":349,"家":350,"容":351,"密":352,"寒":353,"对":354,"寺":355,"寻":356,"封":357,"射":358,"将":359,"尊":360,"小":361,"少":362,"尖":363,"尚":364,"就":365,"尸":366,"尽":367,"居":368,"屋":369,"展":370,"山":371,"岁":372,"岂":373,"岛":374,"岳":375,"峰":376,"州":377,"左":378,"巧":379,"差":380,"己":381,"已":382,"巴":383,"布":384,"师":385,"希":386,"帝":387,"带":388,"帮":389,"常":390,"干":391,"平":392,"年":393,"并":394,"幸":395,"幽":396,"庄":397,"床":398,"应":399,"底":400,"店":401,"府":402,"座":403,"康":404,"开":405,"异":406,"式":407,"引":408,"弟":409,"张":410,"弱":411,"弹":412,"强":413,"归":414,"当":415,"形":416,"影":417,"往":418,"待":419,"很":420,"徐":421,"徒":422,"得":423,"微":424,"德":425,"心":426,"必":427,"忌":428,"忍":429,"志":430,"忘":431,"忙":432,"快":433,"念":434,"忽":435,"怀":436,"怎":437,"怒":438,"怔":439,"怕":440,"怜":441,"思":442,"急":443,"性":444,"怪":445,"总":446,"恐":447,"恨":448,"恩":449,"息":450,"恶":451,"悄":452,"悲":453,"情":454,"惊":455,"惜":456,"惨":457,"想":458,"意":459,"感":460,"愿":461,"慕":462,"慢":463,"懂":464,"成":465,"我":466,"或":467,"战":468,"房":469,"所":470,"手":471,"才":472,"扑":473,"打":474,"扬":475,"找":476,"承":477,"把":478,"抓":479,"抖":480,"折":481,"抢":482,"护":483,"报":484,"抬":485,"抱":486,"拉":487,"拍":488,"拔":489,"招":490,"拜":491,"拳":492,"拿":493,"持":494,"指":495,"挡":496,"挥":497,"换":498,"捷":499,"掌":500,"掠":501,"探":502,"接":503,"推":504,"提":505,"握":506,"摇":507,"摸":508,"撞":509,"收":510,"改":511,"攻":512,"放":513,"故":514,"敌":515,"救":516,"教":517,"敢":518,"散":519,"敬":520,"数":521,"整":522,"文":523,"斗":524,"料":525,"斜":526,"断":527,"新":528,"方":529,"施":530,"旁":531,"旗":532,"无":533,"既":534,"日":535,"早":536,"时":537,"明":538,"易":539,"星":540,"春":541,"是":542,"显":543,"晌":544,"晚":545,"智":546,"暗":547,"曰":548,"曲":549,"更":550,"曾":551,"替":552,"最":553,"月":554,"有":555,"朋":556,"服":557,"望":558,"朝":559,"木":560,"未":561,"本":562,"朱":563,"机":564,"杀":565,"李":566,"材":567,"条":568,"来":569,"杨":570,"杯":571,"松":572,"板":573,"极":574,"林":575,"果":576,"柄":577,"柔":578,"柳":579,"树":580,"样":581,"根":582,"格":583,"桌":584,"梅":585,"梦":586,"楚":587,"楼":588,"模":589,"横":590,"次":591,"欢":592,"欧":593,"欲":594,"止":595,"正":596,"此":597,"步":598,"武":599,"死":600,"残":601,"段":602,"母":603,"每":604,"毒":605,"比":606,"毛":607,"毫":608,"气":609,"水":610,"永":611,"求":612,"汉":613,"汗":614,"江":615,"沈":616,"沉":617,"沙":618,"没":619,"河":620,"法":621,"波":622,"注":623,"泪":624,"洞":625,"洪":626,"活":627,"派":628,"流":629,"浪":630,"海":631,"消":632,"淡":633,"深":634,"清":635,"渐":636,"温":637,"游":638,"湖":639,"滚":640,"满":641,"激":642,"火":643,"灯":644,"灵":645,"点":646,"烈":647,"烟":648,"烧":649,"热":650,"然":651,"照":652,"熊":653,"燕":654,"爱":655,"父":656,"爷":657,"爹":658,"片":659,"牙":660,"牛":661,"物":662,"特":663,"狂":664,"狐":665,"狗":666,"狠":667,"独":668,"猛":669,"猜":670,"玄":671,"玉":672,"王":673,"玩":674,"玮":675,"现":676,"珠":677,"理":678,"甚":679,"生":680,"用":681,"田":682,"由":683,"男":684,"留":685,"番":686,"疑":687,"病":688,"痛":689,"瘦":690,"登":691,"白":692,"百":693,"的":694,"皇":695,"皮":696,"皱":697,"盘":698,"目":699,"直":700,"相":701,"眉":702,"看":703,"真":704,"眼":705,"着":706,"睛":707,"睡":708,"瞧":709,"瞪":710,"知":711,"短":712,"石":713,"破":714,"硬":715,"确":716,"碗":717,"礼":718,"祖":719,"神":720,"禁":721,"福":722,"离":723,"秋":724,"种":725,"秘":726,"称":727,"程":728,"穴":729,"究":730,"空":731,"穿":732,"突":733,"窗":734,"立":735,"站":736,"竟":737,"童":738,"端":739,"竹":740,"笑":741,"笔":742,"第":743,"等":744,"答":745,"简":746,"算":747,"管":748,"箭":749,"精":750,"系":751,"素":752,"索":753,"紧":754,"紫":755,"红":756,"约":757,"纪":758,"纵":759,"纷":760,"练":761,"细":762,"终":763,"经":764,"结":765,"给":766,"绝":767,"缓":768,"缺":769,"罗":770,"罢":771,"罪":772,"美":773,"群":774,"翠":775,"翻":776,"老":777,"者":778,"而":779,"耳":780,"聪":781,"肉":782,"股":783,"肩":784,"肯":785,"胆":786,"背":787,"胜":788,"胡":789,"胸":790,"能":791,"脑":792,"脚":793,"脱":794,"脸":795,"腰":796,"腿":797,"臂":798,"自":799,"至":800,"致":801,"般":802,"船":803,"良":804,"色":805,"芮":806,"花":807,"苍":808,"苏":809,"若":810,"苦":811,"英":812,"草":813,"药":814,"莫":815,"萧":816,"落":817,"著":818,"蒙":819,"蓉":820,"蓝":821,"藏":822,"虎":823,"虚":824,"虽":825,"蛇":826,"血":827,"行":828,"衣":829,"表":830,"衫":831,"袁":832,"袋":833,"袍":834,"袖":835,"被":836,"装":837,"西":838,"要":839,"见":840,"观":841,"视":842,"觉":843,"角":844,"解":845,"言":846,"誉":847,"计":848,"认":849,"让":850,"记":851,"许":852,"论":853,"识":854,"诉":855,"试":856,"话":857,"该":858,"语":859,"说":860,"请":861,"诸":862,"谁":863,"谢":864,"谷":865,"豪":866,"负":867,"败":868,"贵":869,"贼":870,"赌":871,"走":872,"赵":873,"赶":874,"起":875,"越":876,"足":877,"跃":878,"跟":879,"路":880,"跳":881,"身":882,"躲":883,"车":884,"转":885,"软":886,"轻":887,"辈":888,"辛":889,"边":890,"过":891,"迎":892,"运":893,"近":894,"还":895,"这":896,"进":897,"远":898,"连":899,"迟":900,"迷":901,"追":902,"退":903,"送":904,"逃":905,"通":906,"逼":907,"遇":908,"道":909,"避":910,"那":911,"郎":912,"部":913,"郭":914,"都":915,"酒":916,"醉":917,"醒":918,"里":919,"重":920,"野":921,"量":922,"金":923,"钟":924,"钱":925,"铁":926,"银":927,"锋":928,"错":929,"镇":930,"镖":931,"长":932,"门":933,"闪":934,"问":935,"间":936,"闻":937,"阁":938,"阳":939,"阴":940,"阵":941,"阿":942,"陆":943,"陈":944,"院":945,"除":946,"险":947,"陪":948,"随":949,"隐":950,"难":951,"雄":952,"雨":953,"雪":954,"雷":955,"震":956,"露":957,"青":958,"靖":959,"静":960,"非":961,"面":962,"鞭":963,"韦":964,"音":965,"顶":966,"须":967,"顾":968,"顿":969,"领":970,"颜":971,"颤":972,"风":973,"飘":974,"飞":975,"饭":976,"首":977,"香":978,"马":979,"骂":980,"骑":981,"骨":982,"高":983,"鬼":984,"魂":985,"魔":986,"鱼":987,"鲜":988,"鹏":989,"鹤":990,"鹰":991,"麻":992,"麽":993,"黄":994,"黑":995,"默":996,"鼻":997,"齐":998,"龙":999,"！":1000,"，":1001,"：":1002,"；":1003,"？":1004,"s</w>":1005,"d</w>":1006,"n</w>":1007,"e</w>":1008,"o</w>":1009,"守</w>":1010,"刻</w>":1011,"t</w>":1012,"r</w>":1013,"府</w>":1014,"聪</w>":1015,"奇</w>":1016,"比</w>":1017,"转</w>":1018,"「</w>":1019,"端</w>":1020,"湖</w>":1021,"h</w>":1022,"u</w>":1023,"江</w>":1024,"们</w>":1025,"识</w>":1026,"鹰</w>":1027,"嘴</w>":1028,"仍</w>":1029,"里</w>":1030,"l</w>":1031,"吟</w>":1032,"寒</w>":1033,"名</w>":1034,"武</w>":1035,"柄</w>":1036,"目</w>":1037,"须</w>":1038,"豪</w>":1039,"早</w>":1040,"饭</w>":1041,"酒</w>":1042,"有</w>":1043,"住</w>":1044,"依</w>":1045,"手</w>":1046,"高</w>":1047,"镖</w>":1048,"或</w>":1049,"果</w>":1050,"…</w>":1051,"保</w>":1052,"鹏</w>":1053,"其</w>":1054,"若</w>":1055,"摸</w>":1056,"光</w>":1057,"像</w>":1058,"房</w>":1059,"鬼</w>":1060,"悲</w>":1061,"悄</w>":1062,"拳</w>":1063,"系</w>":1064,"领</w>":1065,"屋</w>":1066,"车</w>":1067,"脑</w>":1068,"觉</w>":1069,"败</w>":1070,"利</w>":1071,"则</w>":1072,"向</w>":1073,"胜</w>":1074,"哼</w>":1075,"禁</w>":1076,"渐</w>":1077,"叫</w>":1078,"什</w>":1079,"响</w>":1080,"你</w>":1081,"i</w>":1082,"愿</w>":1083,"摇</w>":1084,"念</w>":1085,"冲</w>":1086,"然</w>":1087,"a</w>":1088,"追</w>":1089,"娇</w>":1090,"带</w>":1091,"女</w>":1092,"浪</w>":1093,"过</w>":1094,"忍</w>":1095,"麽</w>":1096,"熊</w>":1097,"是</w>":1098,"每</w>":1099,"年</w>":1100,"倘</w>":1101,"未</w>":1102,"受</w>":1103,"拔</w>":1104,"代</w>":1105,"处</w>":1106,"足</w>":1107,"特</w>":1108,"男</w>":1109,"吹</w>":1110,"终</w>":1111,"凝</w>":1112,"帮</w>":1113,"影</w>":1114,"家</w>":1115,"主</w>":1116,"来</w>":1117,"巴</w>":1118,"计</w>":1119,"既</w>":1120,"候</w>":1121,"’</w>":1122,"旗</w>":1123,"铁</w>":1124,"火</w>":1125,"神</w>":1126,"再</w>":1127,"妈</w>":1128,"得</w>":1129,"侧</w>":1130,"连</w>":1131,"爹</w>":1132,"英</w>":1133,"止</w>":1134,"战</w>":1135,"宁</w>":1136,"碗</w>":1137,"恐</w>":1138,"包</w>":1139,"威</w>":1140,"忘</w>":1141,"相</w>":1142,"波</w>":1143,"滚</w>":1144,"狂</w>":1145,"声</w>":1146,"分</w>":1147,"大</w>":1148,"冰</w>":1149,"仙</w>":1150,"场</w>":1151,"―</w>":1152,"以</w>":1153,"呆</w>":1154,"狠</w>":1155,"姑</w>":1156,"陪</w>":1157,"丐</w>":1158,"抓</w>":1159,"负</w>":1160,"双</w>":1161,"息</w>":1162,"送</w>":1163,"丝</w>":1164,"盘</w>":1165,"青</w>":1166,"台</w>":1167,"式</w>":1168,"伏</w>":1169,"堂</w>":1170,"鞭</w>":1171,"泪</w>":1172,"右</w>":1173,"仇</w>":1174,"儿</w>":1175,"朱</w>":1176,"群</w>":1177,"妹</w>":1178,"平</w>":1179,"弟</w>":1180,"避</w>":1181,"冷</w>":1182,"管</w>":1183,"斗</w>":1184,"雪</w>":1185,"引</w>":1186,"义</w>":1187,"如</w>":1188,"美</w>":1189,"空</w>":1190,"客</w>":1191,"决</w>":1192,"写</w>":1193,"称</w>":1194,"给</w>":1195,"交</w>":1196,"迎</w>":1197,"时</w>":1198,"敬</w>":1199,"，</w>":1200,"军</w>":1201,"根</w>":1202,"兴</w>":1203,"：</w>":1204,"乐</w>":1205,"化</w>":1206,"地</w>":1207,"师</w>":1208,"万</w>":1209,"店</w>":1210,"毫</w>":1211,"清</w>":1212,"三</w>":1213,"当</w>":1214,"汉</w>":1215,"花</w>":1216,"钱</w>":1217,"物</w>":1218,"！</w>":1219,"偏</w>":1220,"独</w>":1221,"毒</w>":1222,"陆</w>":1223,"公</w>":1224,"乘</w>":1225,"王</w>":1226,"语</w>":1227,"成</w>":1228,"虎</w>":1229,"快</w>":1230,"者</w>":1231,"翻</w>":1232,"城</w>":1233,"竹</w>":1234,"跳</w>":1235,"约</w>":1236,"烈</w>":1237,"狐</w>":1238,"爷</w>":1239,"虽</w>":1240,"胡</w>":1241,"赵</w>":1242,"让</w>":1243,"马</w>":1244,"扬</w>":1245,"月</w>":1246,"肩</w>":1247,"缺</w>":1248,"切</w>":1249,"孔</w>":1250,"布</w>":1251,"贼</w>":1252,"道</w>":1253,"怕</w>":1254,"怜</w>":1255,"佩</w>":1256,"厉</w>":1257,"苍</w>":1258,"罗</w>":1259,"灯</w>":1260,"死</w>":1261,"已</w>":1262,"第</w>":1263,"就</w>":1264,"抢</w>":1265,"接</w>":1266,"在</w>":1267,"卓</w>":1268,"步</w>":1269,"长</w>":1270,"座</w>":1271,"厅</w>":1272,"飘</w>":1273,"怔</w>":1274,"此</w>":1275,"掠</w>":1276,"表</w>":1277,"礼</w>":1278,"秘</w>":1279,"劲</w>":1280,"停</w>":1281,"次</w>":1282,"谢</w>":1283,"坐</w>":1284,"辛</w>":1285,"烧</w>":1286,"怎</w>":1287,"君</w>":1288,"叶</w>":1289,"尸</w>":1290,"况</w>":1291,"将</w>":1292,"亮</w>":1293,"势</w>":1294,"极</w>":1295,"颜</w>":1296,"抬</w>":1297,"凶</w>":1298,"庄</w>":1299,"都</w>":1300,"撞</w>":1301,"游</w>":1302,"并</w>":1303,"功</w>":1304,"乔</w>":1305,"拜</w>":1306,"红</w>":1307,"且</w>":1308,"迟</w>":1309,"索</w>":1310,"最</w>":1311,"往</w>":1312,"欧</w>":1313,"该</w>":1314,"进</w>":1315,"正</w>":1316,"穿</w>":1317,"十</w>":1318,"故</w>":1319,"话</w>":1320,"退</w>":1321,"令</w>":1322,"吴</w>":1323,"活</w>":1324,"何</w>":1325,"余</w>":1326,"丽</w>":1327,"逼</w>":1328,"慕</w>":1329,"定</w>":1330,"智</w>":1331,"淡</w>":1332,"旁</w>":1333,"“</w>":1334,"作</w>":1335,"紧</w>":1336,"那</w>":1337,"夜</w>":1338,"消</w>":1339,"司</w>":1340,"桌</w>":1341,"开</w>":1342,"云</w>":1343,"肯</w>":1344,"边</w>":1345,"喜</w>":1346,"药</w>":1347,"一</w>":1348,"口</w>":1349,"李</w>":1350,"杯</w>":1351,"顾</w>":1352,"情</w>":1353,"野</w>":1354,"均</w>":1355,"亦</w>":1356,"掌</w>":1357,"个</w>":1358,"倒</w>":1359,"慢</w>":1360,"轻</w>":1361,"险</w>":1362,"姊</w>":1363,"生</w>":1364,"刃</w>":1365,"却</w>":1366,"放</w>":1367,"俞</w>":1368,"柳</w>":1369,"燕</w>":1370,"烟</w>":1371,"德</w>":1372,"阴</w>":1373,"显</w>":1374,"求</w>":1375,"袍</w>":1376,"坏</w>":1377,"位</w>":1378,"刀</w>":1379,"热</w>":1380,"苏</w>":1381,"静</w>":1382,"睛</w>":1383,"反</w>":1384,"注</w>":1385,"。</w>":1386,"到</w>":1387,"麻</w>":1388,"郭</w>":1389,"忌</w>":1390,"楼</w>":1391,"射</w>":1392,"还</w>":1393,"唐</w>":1394,"缓</w>":1395,"卫</w>":1396,"持</w>":1397,"展</w>":1398,"妻</w>":1399,"报</w>":1400,"水</w>":1401,"要</w>":1402,"隐</w>":1403,"望</w>":1404,"围</w>":1405,"罪</w>":1406,"床</w>":1407,"模</w>":1408,"玩</w>":1409,"打</w>":1410,"皮</w>":1411,"临</w>":1412,"听</w>":1413,"墙</w>":1414,"赶</w>":1415,"友</w>":1416,"拿</w>":1417,"妙</w>":1418,"背</w>":1419,"从</w>":1420,"笑</w>":1421,"否</w>":1422,"瘦</w>":1423,"好</w>":1424,"己</w>":1425,"靖</w>":1426,"细</w>":1427,"部</w>":1428,"无</w>":1429,"华</w>":1430,"岂</w>":1431,"朋</w>":1432,"齐</w>":1433,"重</w>":1434,"汗</w>":1435,"痛</w>":1436,"沉</w>":1437,"实</w>":1438,"整</w>":1439,"除</w>":1440,"吓</w>":1441,"春</w>":1442,"香</w>":1443,"尽</w>":1444,"握</w>":1445,"谁</w>":1446,"兵</w>":1447,"音</w>":1448,"上</w>":1449,"啦</w>":1450,"角</w>":1451,"尖</w>":1452,"州</w>":1453,"应</w>":1454,"形</w>":1455,"假</w>":1456,"散</w>":1457,"呢</w>":1458,"思</w>":1459,"北</w>":1460,"惨</w>":1461,"壁</w>":1462,"简</w>":1463,"更</w>":1464,"脚</w>":1465,"诸</w>":1466,"玄</w>":1467,"用</w>":1468,"徒</w>":1469,"宫</w>":1470,"练</w>":1471,"鱼</w>":1472,"欢</w>":1473,"惊</w>":1474,"头</w>":1475,"树</w>":1476,"寻</w>":1477,"顿</w>":1478,"收</w>":1479,"胸</w>":1480,"锋</w>":1481,"装</w>":1482,"松</w>":1483,"料</w>":1484,"？</w>":1485,"曰</w>":1486,"跃</w>":1487,"珠</w>":1488,"问</w>":1489,"猛</w>":1490,"落</w>":1491,"下</w>":1492,"种</w>":1493,"但</w>":1494,"眉</w>":1495,"眼</w>":1496,"拉</w>":1497,"传</w>":1498,"金</w>":1499,"气</w>":1500,"本</w>":1501,"些</w>":1502,"试</w>":1503,"才</w>":1504,"把</w>":1505,"施</w>":1506,"穴</w>":1507,"吃</w>":1508,"加</w>":1509,"」</w>":1510,"横</w>":1511,"付</w>":1512,"直</w>":1513,"河</w>":1514,"身</w>":1515,"指</w>":1516,"居</w>":1517,"衫</w>":1518,"记</w>":1519,"免</w>":1520,"躲</w>":1521,"侠</w>":1522,"忽</w>":1523,"能</w>":1524,"纪</w>":1525,"段</w>":1526,"夫</w>":1527,"曾</w>":1528,"喝</w>":1529,"至</w>":1530,"醉</w>":1531,"温</w>":1532,"黑</w>":1533,"很</w>":1534,"木</w>":1535,"逃</w>":1536,"别</w>":1537,"说</w>":1538,"攻</w>":1539,"尊</w>":1540,"；</w>":1541,"少</w>":1542,"纵</w>":1543,"胆</w>":1544,"侯</w>":1545,"它</w>":1546,"梦</w>":1547,"力</w>":1548,"石</w>":1549,"姐</w>":1550,"四</w>":1551,"素</w>":1552,"程</w>":1553,"内</w>":1554,"折</w>":1555,"只</w>":1556,"文</w>":1557,"始</w>":1558,"醒</w>":1559,"欲</w>":1560,"楚</w>":1561,"断</w>":1562,"曲</w>":1563,"色</w>":1564,"芮</w>":1565,"对</w>":1566,"与</w>":1567,"疑</w>":1568,"条</w>":1569,"严</w>":1570,"言</w>":1571,"备</w>":1572,"垂</w>":1573,"容</w>":1574,"后</w>":1575,"偷</w>":1576,"吐</w>":1577,"赌</w>":1578,"理</w>":1579,"迷</w>":1580,"不</w>":1581,"护</w>":1582,"她</w>":1583,"充</w>":1584,"这</w>":1585,"瞧</w>":1586,"—</w>":1587,"袁</w>":1588,"中</w>":1589,"号</w>":1590,"间</w>":1591,"之</w>":1592,"及</w>":1593,"入</w>":1594,"首</w>":1595,"感</w>":1596,"宝</w>":1597,"东</w>":1598,"点</w>":1599,"士</w>":1600,"半</w>":1601,"变</w>":1602,"佛</w>":1603,"必</w>":1604,"招</w>":1605,"二</w>":1606,"几</w>":1607,"经</w>":1608,"哥</w>":1609,"做</w>":1610,"真</w>":1611,"徐</w>":1612,"数</w>":1613,"板</w>":1614,"寺</w>":1615,"蛇</w>":1616,"日</w>":1617,"挥</w>":1618,"震</w>":1619,"事</w>":1620,"观</w>":1621,"知</w>":1622,"晚</w>":1623,"起</w>":1624,"院</w>":1625,"般</w>":1626,"同</w>":1627,"兄</w>":1628,"完</w>":1629,"衣</w>":1630,"原</w>":1631,"良</w>":1632,"飞</w>":1633,"片</w>":1634,"咬</w>":1635,"蒙</w>":1636,"奔</w>":1637,"韦</w>":1638,"于</w>":1639,"究</w>":1640,"回</w>":1641,"害</w>":1642,"‘</w>":1643,"通</w>":1644,"兰</w>":1645,"丈</w>":1646,"秋</w>":1647,"忙</w>":1648,"凡</w>":1649,"周</w>":1650,"牛</w>":1651,"阵</w>":1652,"雨</w>":1653,"懂</w>":1654,"蓝</w>":1655,"样</w>":1656,"诉</w>":1657,"乱</w>":1658,"书</w>":1659,"丁</w>":1660,"残</w>":1661,"恩</w>":1662,"敌</w>":1663,"世</w>":1664,"咱</w>":1665,"意</w>":1666,"童</w>":1667,"路</w>":1668,"多</w>":1669,"柔</w>":1670,"?</w>":1671,"告</w>":1672,"龙</w>":1673,"可</w>":1674,"怀</w>":1675,"惜</w>":1676,"总</w>":1677,"致</w>":1678,"合</w>":1679,"父</w>":1680,"姓</w>":1681,"洞</w>":1682,"袖</w>":1683,"满</w>":1684,"结</w>":1685,"差</w>":1686,"小</w>":1687,"仿</w>":1688,"解</w>":1689,"黄</w>":1690,"病</w>":1691,"洪</w>":1692,"方</w>":1693,"镇</w>":1694,"阿</w>":1695,"峰</w>":1696,"刚</w>":1697,"使</w>":1698,"登</w>":1699,"娘</w>":1700,"亲</w>":1701,"海</w>":1702,"猜</w>":1703,"近</w>":1704,"扑</w>":1705,"异</w>":1706,"母</w>":1707,"归</w>":1708,"骂</w>":1709,"百</w>":1710,"岳</w>":1711,"急</w>":1712,"贵</w>":1713,"吧</w>":1714,"牙</w>":1715,"许</w>":1716,"暗</w>":1717,"弹</w>":1718,"鹤</w>":1719,"尚</w>":1720,"哪</w>":1721,"吗</w>":1722,"换</w>":1723,"准</w>":1724,"雷</w>":1725,"安</w>":1726,"先</w>":1727,"抱</w>":1728,"九</w>":1729,"出</w>":1730,"认</w>":1731,"蓉</w>":1732,"没</w>":1733,"件</w>":1734,"封</w>":1735,"另</w>":1736,"捷</w>":1737,"藏</w>":1738,"请</w>":1739,"激</w>":1740,"七</w>":1741,"流</w>":1742,"叔</w>":1743,"孤</w>":1744,"袋</w>":1745,"单</w>":1746,"服</w>":1747,"拍</w>":1748,"丹</w>":1749,"非</w>":1750,"离</w>":1751,"视</w>":1752,"誉</w>":1753,"傅</w>":1754,"妇</w>":1755,"巧</w>":1756,"机</w>":1757,"闻</w>":1758,"毛</w>":1759,"山</w>":1760,"幽</w>":1761,"常</w>":1762,"复</w>":1763,"啊</w>":1764,"雄</w>":1765,"精</w>":1766,"剑</w>":1767,"太</w>":1768,"句</w>":1769,"教</w>":1770,"股</w>":1771,"份</w>":1772,"俱</w>":1773,"久</w>":1774,"随</w>":1775,"远</w>":1776,"肉</w>":1777,"祖</w>":1778,"官</w>":1779,"跟</w>":1780,"等</w>":1781,"面</w>":1782,"阳</w>":1783,"著</w>":1784,"颤</w>":1785,"留</w>":1786,"门</w>":1787,"量</w>":1788,"凌</w>":1789,"命</w>":1790,"喃</w>":1791,"乎</w>":1792,"灵</w>":1793,"替</w>":1794,"幸</w>":1795,"夺</w>":1796,"由</w>":1797,"字</w>":1798,"狗</w>":1799,"前</w>":1800,"明</w>":1801,"错</w>":1802,"推</w>":1803,"动</w>":1804,"救</w>":1805,"我</w>":1806,"的</w>":1807,"关</w>":1808,"陈</w>":1809,"危</w>":1810,"外</w>":1811,"图</w>":1812,"难</w>":1813,"密</w>":1814,"钟</w>":1815,"风</w>":1816,"学</w>":1817,"伸</w>":1818,"翠</w>":1819,"发</w>":1820,"弱</w>":1821,"伙</w>":1822,"萧</w>":1823,"算</w>":1824,"运</w>":1825,"信</w>":1826,"被</w>":1827,"骑</w>":1828,"千</w>":1829,"因</w>":1830,"人</w>":1831,"够</w>":1832,"左</w>":1833,"晌</w>":1834,"皱</w>":1835,"默</w>":1836,"取</w>":1837,"微</w>":1838,"恶</w>":1839,"鲜</w>":1840,"硬</w>":1841,"易</w>":1842,"确</w>":1843,"腰</w>":1844,"八</w>":1845,"吸</w>":1846,"低</w>":1847,"虚</w>":1848,"郎</w>":1849,"皇</w>":1850,"孩</w>":1851,"立</w>":1852,"便</w>":1853,"怪</w>":1854,"击</w>":1855,"玮</w>":1856,"现</w>":1857,"朝</w>":1858,"承</w>":1859,"探</w>":1860,"软</w>":1861,"草</w>":1862,"为</w>":1863,"土</w>":1864,"仰</w>":1865,"和</w>":1866,"窗</w>":1867,"笔</w>":1868,"紫</w>":1869,"似</w>":1870,"老</w>":1871,"闪</w>":1872,"耳</w>":1873,"看</w>":1874,"孙</w>":1875,"么</w>":1876,"六</w>":1877,"破</w>":1878,"挡</w>":1879,"心</w>":1880,"爱</w>":1881,"新</w>":1882,"”</w>":1883,"箭</w>":1884,"所</w>":1885,"全</w>":1886,"永</w>":1887,"又</w>":1888,"船</w>":1889,"沈</w>":1890,"器</w>":1891,"提</w>":1892,"杀</w>":1893,"哭</w>":1894,"魔</w>":1895,"任</w>":1896,"林</w>":1897,"罢</w>":1898,"会</w>":1899,"自</w>":1900,"甚</w>":1901,"刺</w>":1902,"银</w>":1903,"制</w>":1904,"举</w>":1905,"想</w>":1906,"体</w>":1907,"格</w>":1908,"走</w>":1909,"斜</w>":1910,"国</w>":1911,"岛</w>":1912,"刘</w>":1913,"遇</w>":1914,"希</w>":1915,"短</w>":1916,"伤</w>":1917,"谷</w>":1918,"强</w>":1919,"了</w>":1920,"照</w>":1921,"福</w>":1922,"沙</w>":1923,"行</w>":1924,"呼</w>":1925,"天</w>":1926,"越</w>":1927,"星</w>":1928,"他</w>":1929,"敢</w>":1930,"臂</w>":1931,"派</w>":1932,"岁</w>":1933,"答</w>":1934,"顶</w>":1935,"魂</w>":1936,"张</w>":1937,"西</w>":1938,"志</w>":1939,"古</w>":1940,"番</w>":1941,"南</w>":1942,"性</w>":1943,"玉</w>":1944,"苦</w>":1945,"材</w>":1946,"莫</w>":1947,"纷</w>":1948,"叹</w>":1949,"即</w>":1950,"圆</w>":1951,"阁</w>":1952,"康</w>":1953,"各</w>":1954,"去</w>":1955,"腿</w>":1956,"竟</w>":1957,"脱</w>":1958,"睡</w>":1959,"今</w>":1960,"露</w>":1961,"众</w>":1962,"、</w>":1963,"法</w>":1964,"田</w>":1965,"失</w>":1966,"待</w>":1967,"梅</w>":1968,"伯</w>":1969,"婆</w>":1970,"鼻</w>":1971,"哈</w>":1972,"而</w>":1973,"帝</w>":1974,"两</w>":1975,"怒</w>":1976,"着</w>":1977,"瞪</w>":1978,"僧</w>":1979,"块</w>":1980,"骨</w>":1981,"站</w>":1982,"干</w>":1983,"底</w>":1984,"呀</w>":1985,"血</w>":1986,"乃</w>":1987,"杨</w>":1988,"抖</w>":1989,"改</w>":1990,"辈</w>":1991,"五</w>":1992,"绝</w>":1993,"突</w>":1994,"恨</w>":1995,"子</w>":1996,"也</w>":1997,"深</w>":1998,"白</w>":1999,"见</w>":2000,"凤</w>":2001,"找</w>":2002,"脸</w>":2003,"论</w>":2004,"th":2005,"an":2006,"ea":2007,"ou":2008,"in":2009,"ha":2010,"er":2011,"is</w>":2012,"ll</w>":2013,"er</w>":2014,"or":2015,"th</w>":2016,"the</w>":2017,"ou</w>":2018,"and</w>":2019,"en":2020,"ar":2021,"to</w>":2022,"no":2023,"in</w>":2024,"on":2025,"ee":2026,"se</w>":2027,"st</w>":2028,"ur":2029,"oe</w>":2030,"st":2031,"the":2032,"es</w>":2033,"at</w>":2034,"ed</w>":2035,"on</w>":2036,"li":2037,"or</w>":2038,"et</w>":2039,"ae</w>":2040,"he</w>":2041,"it</w>":2042,"hi":2043,"nd</w>":2044,"an</w>":2045,"ith</w>":2046,"that</w>":2047,"oo":2048,"ere</w>":2049,"not</w>":2050,"la":2051,"ld</w>":2052,"al":2053,"hat</w>":2054,"si":2055,"thou</w>":2056,"ri":2057,"ro":2058,"ut</w>":2059,"en</w>":2060,"as</w>":2061,"ill</w>":2062,"ear":2063,"our</w>":2064,"at":2065,"ht</w>":2066,"el":2067,"ie</w>":2068,"this</w>":2069,"re":2070,"oe":2071,"sh":2072,"ai":2073,"his</w>":2074,"ter</w>":2075,"da":2076,"lo":2077,"ell</w>":2078,"dea":2079,"un":2080,"all</w>":2081,"urse</w>":2082,"her</w>":2083,"di":2084,"loe</w>":2085,"thee</w>":2086,"sha":2087,"ore</w>":2088,"ho":2089,"ts</w>":2090,"here</w>":2091,"one</w>":2092,"es":2093,"ould</w>":2094,"le</w>":2095,"oeo</w>":2096,"ti":2097,"so</w>":2098,"ds</w>":2099,"hae</w>":2100,"ther</w>":2101,"ood</w>":2102,"rea":2103,"sor":2104,"sa":2105,"su":2106,"iht</w>":2107,"ru":2108,"ine</w>":2109,"ers</w>":2110,"to":2111,"lie</w>":2112,"she</w>":2113,"au":2114,"ear</w>":2115,"ra":2116,"shall</w>":2117,"de</w>":2118,"oun":2119,"do":2120,"is":2121,"ent":2122,"are</w>":2123,"ir":2124,"il":2125,"out</w>":2126,"ent</w>":2127,"niht</w>":2128,"se":2129,"net</w>":2130,"hen</w>":2131,"do</w>":2132,"no</w>":2133,"art</w>":2134,"hea":2135,"see":2136,"thin":2137,"nter</w>":2138,"sl":2139,"et":2140,"est</w>":2141,"hih</w>":2142,"te</w>":2143,"our":2144,"ir</w>":2145,"let</w>":2146,"ene</w>":2147,"so":2148,"death</w>":2149,"sel":2150,"ant</w>":2151,"ain":2152,"ord</w>":2153,"end</w>":2154,"then</w>":2155,"een</w>":2156,"soe</w>":2157,"ous</w>":2158,"ess</w>":2159,"there</w>":2160,"air</w>":2161,"ure</w>":2162,"sir</w>":2163,"ind</w>":2164,"old</w>":2165,"lea":2166,"ees</w>":2167,"alt</w>":2168,"hath</w>":2169,"it":2170,"us</w>":2171,"aa":2172,"uli":2173,"lad":2174,"too</w>":2175,"ears</w>":2176,"ho</w>":2177,"ne":2178,"eore</w>":2179,"de":2180,"ale</w>":2181,"oes</w>":2182,"uh</w>":2183,"dead</w>":2184,"ast</w>":2185,"loo":2186,"ane</w>":2187,"str":2188,"their</w>":2189,"should</w>":2190,"rou":2191,"ar</w>":2192,"ls</w>":2193,"tru":2194,"than</w>":2195,"as":2196,"ith":2197,"hear":2198,"uliet</w>":2199,"other</w>":2200,"der</w>":2201,"ust</w>":2202,"ont":2203,"ate</w>":2204,"suh</w>":2205,"ins</w>":2206,"arr":2207,"al</w>":2208,"her":2209,"hur":2210,"tie</w>":2211,"tell</w>":2212,"hou":2213,"ee</w>":2214,"lain</w>":2215,"hou</w>":2216,"tt":2217,"uon</w>":2218,"ani":2219,"doth</w>":2220,"he":2221,"rl":2222,"oth</w>":2223,"these</w>":2224,"od</w>":2225,"id</w>":2226,"rae</w>":2227,"arri":2228,"ol":2229,"rl</w>":2230,"rlnet</w>":2231,"ul</w>":2232,"usi":2233,"har":2234,"lies</w>":2235,"res":2236,"did</w>":2237,"sed</w>":2238,"tae</w>":2239,"liht</w>":2240,"rin":2241,"sea":2242,"ans</w>":2243,"unt</w>":2244,"le":2245,"sou":2246,"irst</w>":2247,"sll":2248,"us":2249,"ath</w>":2250,"ort":2251,"see</w>":2252,"ad</w>":2253,"din":2254,"ne</w>":2255,"use</w>":2256,"nurse</w>":2257,"ot</w>":2258,"seet</w>":2259,"eunt</w>":2260,"sin</w>":2261,"son</w>":2262,"tin":2263,"ilt</w>":2264,"house</w>":2265,"don</w>":2266,"nae</w>":2267,"hol":2268,"sta":2269,"ade</w>":2270,"han":2271,"thou":2272,"ati":2273,"heart</w>":2274,"ontau":2275,"anish":2276,"lin":2277,"ost</w>":2278,"eed</w>":2279,"riar</w>":2280,"aes</w>":2281,"ein":2282,"tis</w>":2283,"uti":2284,"erant</w>":2285,"aris</w>":2286,"ond</w>":2287,"heaen</w>":2288,"aain</w>":2289,"true</w>":2290,"est":2291,"aid</w>":2292,"dear</w>":2293,"ather</w>":2294,"hene</w>":2295,"sae</w>":2296,"uh":2297,"re</w>":2298,"hand</w>":2299,"lt</w>":2300,"tr":2301,"hast</w>":2302,"erin":2303,"etter</w>":2304,"ree":2305,"ta":2306,"ad":2307,"ada":2308,"die</w>":2309,"oin":2310,"ut":2311,"orro":2312,"atur":2313,"dr":2314,"ue</w>":2315,"eet</w>":2316,"lord</w>":2317,"nin":2318,"ter":2319,"stand</w>":2320,"ated</w>":2321,"den</w>":2322,"hear</w>":2323,"ile</w>":2324,"sin":2325,"rie":2326,"ies</w>":2327,"lon":2328,"ses</w>":2329,"usii":2330,"ontaue</w>":2331,"der":2332,"drea":2333,"oth":2334,"ton":2335,"eell</w>":2336,"ish</w>":2337,"neer</w>":2338,"eer":2339,"ise</w>":2340,"less</w>":2341,"os</w>":2342,"ted</w>":2343,"annot</w>":2344,"ard</w>":2345,"areell</w>":2346,"urn</w>":2347,"ste</w>":2348,"sion</w>":2349,"ithin</w>":2350,"led</w>":2351,"tu":2352,"oeer</w>":2353,"aulet</w>":2354,"dst</w>":2355,"dated</w>":2356,"hon":2357,"lis</w>":2358,"ose</w>":2359,"tears</w>":2360,"eae</w>":2361,"ound</w>":2362,"ort</w>":2363,"tion</w>":2364,"arried</w>":2365,"aturda":2366,"eer</w>":2367,"rine</w>":2368,"hel":2369,"lood</w>":2370,"oer":2371,"sure</w>":2372,"eruti":2373,"alls</w>":2374,"earl":2375,"earth</w>":2376,"hard</w>":2377,"hour</w>":2378,"os":2379,"tal":2380,"ui":2381,"ount":2382,"head</w>":2383,"aith</w>":2384,"lae</w>":2385,"oer</w>":2386,"oor</w>":2387,"hall</w>":2388,"rest</w>":2389,"dauh":2390,"anished</w>":2391,"ist":2392,"les":2393,"till</w>":2394,"ther":2395,"ousin</w>":2396,"dra":2397,"ither</w>":2398,"slain</w>":2399,"oul</w>":2400,"had</w>":2401,"orld</w>":2402,"ens</w>":2403,"ents</w>":2404,"sil":2405,"shae</w>":2406,"illain</w>":2407,"lean</w>":2408,"ih":2409,"ious</w>":2410,"od":2411,"ins":2412,"ene":2413,"ours</w>":2414,"erutio</w>":2415,"ast":2416,"des":2417,"nes</w>":2418,"ois":2419,"rit</w>":2420,"those</w>":2421,"orth</w>":2422,"los</w>":2423,"entl":2424,"slee":2425,"hereore</w>":2426,"ded</w>":2427,"ied</w>":2428,"hild</w>":2429,"loer</w>":2430,"sun</w>":2431,"dl":2432,"dar":2433,"ser":2434,"sda":2435,"tor":2436,"haste</w>":2437,"eel</w>":2438,"alone</w>":2439,"ree</w>":2440,"hose</w>":2441,"ties</w>":2442,"lets</w>":2443,"ords</w>":2444,"ons</w>":2445,"dauhter</w>":2446,"ain</w>":2447,"du":2448,"dan":2449,"hus":2450,"il</w>":2451,"rai":2452,"said</w>":2453,"antu":2454,"eaut":2455,"hate</w>":2456,"ars</w>":2457,"nothin":2458,"none</w>":2459,"hither</w>":2460,"las</w>":2461,"rie</w>":2462,"sho":2463,"loers</w>":2464,"reath</w>":2465,"dost</w>":2466,"entlean</w>":2467,"ourt":2468,"hursda":2469,"soul</w>":2470,"usiian</w>":2471,"oison</w>":2472,"ed":2473,"still</w>":2474,"side</w>":2475,"ithout</w>":2476,"ress</w>":2477,"antua</w>":2478,"aur":2479,"aoe</w>":2480,"dee":2481,"eous</w>":2482,"eond</w>":2483,"hane</w>":2484,"lu":2485,"letter</w>":2486,"na":2487,"ss</w>":2488,"ser</w>":2489,"set</w>":2490,"thine</w>":2491,"ean</w>":2492,"east</w>":2493,"eron":2494,"hile</w>":2495,"hide</w>":2496,"riend</w>":2497,"rel</w>":2498,"hold</w>":2499,"ault</w>":2500,"entle</w>":2501,"rouh</w>":2502,"sound</w>":2503,"hands</w>":2504,"aster</w>":2505,"husand</w>":2506,"send</w>":2507,"turn</w>":2508,"soon</w>":2509,"others</w>":2510,"done</w>":2511,"lou":2512,"uar":2513,"litt":2514,"late</w>":2515,"ros</w>":2516,"sorn</w>":2517,"run</w>":2518,"iss</w>":2519,"leae</w>":2520,"ortun":2521,"thereore</w>":2522,"little</w>":2523,"den":2524,"oo</w>":2525,"another</w>":2526,"ouh</w>":2527,"aulets</w>":2528,"ire</w>":2529,"arriae</w>":2530,"insan</w>":2531,"erona</w>":2532,"aout</w>":2533,"eth</w>":2534,"hes</w>":2535,"its</w>":2536,"ite</w>":2537,"nee":2538,"ness</w>":2539,"sar":2540,"sit</w>":2541,"ten":2542,"ters</w>":2543,"orn</w>":2544,"nor</w>":2545,"ured</w>":2546,"lih":2547,"oose</w>":2548,"siht</w>":2549,"rih</w>":2550,"dies</w>":2551,"read</w>":2552,"reat</w>":2553,"sol":2554,"ainst</w>":2555,"round</w>":2556,"arrant</w>":2557,"uarrel</w>":2558,"das</w>":2559,"eter</w>":2560,"hoe</w>":2561,"oed</w>":2562,"ran":2563,"sh</w>":2564,"sear</w>":2565,"ul":2566,"ull</w>":2567,"eath</w>":2568,"haer</w>":2569,"ardon</w>":2570,"non</w>":2571,"ones</w>":2572,"sto":2573,"tonue</w>":2574,"deed</w>":2575,"el</w>":2576,"eti":2577,"oort</w>":2578,"roe</w>":2579,"shi":2580,"sla":2581,"sas</w>":2582,"sent</w>":2583,"tent":2584,"eause</w>":2585,"han</w>":2586,"erate</w>":2587,"orse</w>":2588,"enter</w>":2589,"ends</w>":2590,"hisel":2591,"oot</w>":2592,"riht</w>":2593,"ride</w>":2594,"else</w>":2595,"aiht</w>":2596,"shalt</w>":2597,"straiht</w>":2598,"thouh</w>":2599,"osal":2600,"istress</w>":2601,"deserate</w>":2602,"entleen</w>":2603,"ath":2604,"ns</w>":2605,"need</w>":2606,"ornin":2607,"enh</w>":2608,"thed</w>":2609,"shes</w>":2610,"sel</w>":2611,"hurh</w>":2612,"siler</w>":2613,"aurene</w>":2614,"osaline</w>":2615,"ase</w>":2616,"aainst</w>":2617,"hours</w>":2618,"ie":2619,"iti":2620,"lear":2621,"oli":2622,"oie</w>":2623,"roo":2624,"soe":2625,"tl":2626,"tri":2627,"tain":2628,"uil":2629,"than":2630,"anser</w>":2631,"ease</w>":2632,"into</w>":2633,"hal":2634,"err":2635,"oret</w>":2636,"onl":2637,"onu":2638,"eein":2639,"stin":2640,"ries</w>":2641,"read":2642,"aint</w>":2643,"roud</w>":2644,"ollo":2645,"ation</w>":2646,"othear":2647,"dden</w>":2648,"hor":2649,"ion</w>":2650,"oa":2651,"ron</w>":2652,"sear":2653,"eat</w>":2654,"sti":2655,"hil":2656,"ool</w>":2657,"dist":2658,"torh</w>":2659,"adi":2660,"athan</w>":2661,"doo":2662,"ein</w>":2663,"eans</w>":2664,"hee":2665,"hit</w>":2666,"lan":2667,"nih":2668,"oan":2669,"oen</w>":2670,"oso":2671,"ron":2672,"sen":2673,"test</w>":2674,"tale</w>":2675,"easure</w>":2676,"outh</w>":2677,"nole</w>":2678,"onder</w>":2679,"last</w>":2680,"eloe</w>":2681,"ail</w>":2682,"lose</w>":2683,"loes</w>":2684,"hot</w>":2685,"sord</w>":2686,"sorro":2687,"sords</w>":2688,"sain":2689,"ounsel</w>":2690,"thins</w>":2691,"hurhard</w>":2692,"anient</w>":2693,"hare</w>":2694,"thouht</w>":2695,"usiians</w>":2696,"louds</w>":2697,"ortune</w>":2698,"te":2699,"ton</w>":2700,"aner</w>":2701,"anst</w>":2702,"urder</w>":2703,"atter</w>":2704,"ello":2705,"sort</w>":2706,"sea</w>":2707,"lood":2708,"ass</w>":2709,"oint</w>":2710,"ehold</w>":2711,"hin":2712,"hers</w>":2713,"ier":2714,"ial</w>":2715,"let":2716,"nat":2717,"near</w>":2718,"oon</w>":2719,"oan</w>":2720,"run":2721,"sand</w>":2722,"sine</w>":2723,"ten</w>":2724,"utt":2725,"thu":2726,"thsel":2727,"eal":2728,"eats</w>":2729,"oul":2730,"ouht</w>":2731,"inu":2732,"indo":2733,"indeed</w>":2734,"hain":2735,"orhard</w>":2736,"eeh</w>":2737,"stars</w>":2738,"strie</w>":2739,"liin":2740,"laent":2741,"all":2742,"sile</w>":2743,"site</w>":2744,"earul</w>":2745,"att":2746,"ats</w>":2747,"rett":2748,"shos</w>":2749,"short</w>":2750,"aids</w>":2751,"daer</w>":2752,"loin":2753,"unto</w>":2754,"under</w>":2755,"dis":2756,"ession</w>":2757,"eseeh</w>":2758,"sad":2759,"sudden</w>":2760,"rude</w>":2761,"ounds</w>":2762,"seen</w>":2763,"seein":2764,"loos</w>":2765,"thousand</w>":2766,"anishent</w>":2767,"toniht</w>":2768,"lesh</w>":2769,"tender</w>":2770,"aon":2771,"dear":2772,"ders</w>":2773,"eit</w>":2774,"lar":2775,"ni":2776,"rear":2777,"too":2778,"hats</w>":2779,"enouh</w>":2780,"onin":2781,"stu":2782,"star":2783,"oeos</w>":2784,"reason</w>":2785,"suer</w>":2786,"toorro":2787,"reeer</w>":2788,"aae</w>":2789,"ahile</w>":2790,"eh":2791,"eins</w>":2792,"eile</w>":2793,"either</w>":2794,"hu":2795,"hell</w>":2796,"hood</w>":2797,"hees</w>":2798,"ior</w>":2799,"lent</w>":2800,"lind</w>":2801,"nie</w>":2802,"naes</w>":2803,"res</w>":2804,"sere</w>":2805,"slo":2806,"sell</w>":2807,"sati":2808,"ur</w>":2809,"uest":2810,"thul</w>":2811,"throuh</w>":2812,"int":2813,"inin":2814,"erd</w>":2815,"ors</w>":2816,"end":2817,"enth</w>":2818,"enit":2819,"enious</w>":2820,"enoli":2821,"noise</w>":2822,"onst":2823,"ursed</w>":2824,"stl":2825,"stre":2826,"stir</w>":2827,"als</w>":2828,"alts</w>":2829,"sied</w>":2830,"rother</w>":2831,"ater</w>":2832,"ail":2833,"diso":2834,"didst</w>":2835,"tiel":2836,"reast</w>":2837,"ause</w>":2838,"rah</w>":2839,"raes</w>":2840,"ount</w>":2841,"irl</w>":2842,"heads</w>":2843,"oursel":2844,"ourale</w>":2845,"itsel":2846,"street</w>":2847,"strenth</w>":2848,"ithal</w>":2849,"hurt</w>":2850,"tten</w>":2851,"hese</w>":2852,"heir</w>":2853,"seas</w>":2854,"ush</w>":2855,"ontaues</w>":2856,"tain</w>":2857,"ourteen</w>":2858,"liht":2859,"onuent</w>":2860,"ouldst</w>":2861,"satisied</w>":2862,"enolio</w>":2863,"ean":2864,"hs</w>":2865,"hun":2866,"lee":2867,"ners</w>":2868,"otion</w>":2869,"rt</w>":2870,"sins</w>":2871,"three</w>":2872,"urder":2873,"laid</w>":2874,"els</w>":2875,"loed</w>":2876,"sle":2877,"lead</w>":2878,"letters</w>":2879,"ali":2880,"ala":2881,"aslee":2882,"dare</w>":2883,"det":2884,"dane</w>":2885,"eli":2886,"euse</w>":2887,"etion</w>":2888,"id":2889,"ild</w>":2890,"nine</w>":2891,"oh":2892,"oend</w>":2893,"red</w>":2894,"ran</w>":2895,"reen</w>":2896,"sur":2897,"sal":2898,"soun":2899,"tur":2900,"tear</w>":2901,"un</w>":2902,"uoth</w>":2903,"uid</w>":2904,"thus</w>":2905,"eah</w>":2906,"eal</w>":2907,"eauti":2908,"inds</w>":2909,"iners</w>":2910,"iness</w>":2911,"inter":2912,"hadst</w>":2913,"orth":2914,"eness</w>":2915,"nos</w>":2916,"ond":2917,"onsent</w>":2918,"urther</w>":2919,"stan":2920,"stor":2921,"stru":2922,"stane</w>":2923,"state</w>":2924,"lier":2925,"ood":2926,"ladies</w>":2927,"alon":2928,"alread":2929,"sihs</w>":2930,"riends</w>":2931,"ritten</w>":2932,"atel":2933,"return</w>":2934,"shed</w>":2935,"shrit</w>":2936,"air":2937,"untiel":2938,"sad</w>":2939,"rust</w>":2940,"auht</w>":2941,"rains</w>":2942,"isel":2943,"entle":2944,"seond</w>":2945,"ains</w>":2946,"leasure</w>":2947,"iteous</w>":2948,"strane</w>":2949,"truth</w>":2950,"heres</w>":2951,"hersel":2952,"houses</w>":2953,"ortal</w>":2954,"atiene</w>":2955,"dred</w>":2956,"loner</w>":2957,"dreas</w>":2958,"honour</w>":2959,"honest</w>":2960,"honourale</w>":2961,"lessed</w>":2962,"daned</w>":2963,"eddin":2964,"slauh":2965,"nature</w>":2966,"laentale</w>":2967,"reare</w>":2968,"ets</w>":2969,"shin":2970,"aiden":2971,"rain":2972,"rain</w>":2973,"hearts</w>":2974,"oss":2975,"saint</w>":2976,"ah</w>":2977,"aest</w>":2978,"aard</w>":2979,"aeti":2980,"des</w>":2981,"dri":2982,"dout</w>":2983,"dins</w>":2984,"eu</w>":2985,"ea</w>":2986,"esh":2987,"ha</w>":2988,"hus</w>":2989,"hins</w>":2990,"ier</w>":2991,"ist</w>":2992,"ide</w>":2993,"iol":2994,"iil</w>":2995,"lest</w>":2996,"nu":2997,"ner</w>":2998,"natur":2999,"nless</w>":3000,"ot":3001,"rar":3002,"son":3003,"sour</w>":3004,"serin":3005,"tro":3006,"tas</w>":3007,"tun":3008,"tle</w>":3009,"trea":3010,"tort":3011,"ule</w>":3012,"uarr":3013,"thither</w>":3014,"anish</w>":3015,"anled</w>":3016,"inior</w>":3017,"hast":3018,"hair</w>":3019,"hate":3020,"ert</w>":3021,"eres</w>":3022,"erore</w>":3023,"eral</w>":3024,"orard</w>":3025,"orna":3026,"orsorn</w>":3027,"enti":3028,"arti":3029,"ards</w>":3030,"aroa":3031,"noin":3032,"noon</w>":3033,"note</w>":3034,"onure</w>":3035,"eets</w>":3036,"urn":3037,"uried</w>":3038,"sts</w>":3039,"steel</w>":3040,"hid</w>":3041,"hie</w>":3042,"lar</w>":3043,"lads</w>":3044,"sire</w>":3045,"sition</w>":3046,"sirit</w>":3047,"rite</w>":3048,"rider":3049,"roes</w>":3050,"road</w>":3051,"earin":3052,"atin":3053,"ater":3054,"atal</w>":3055,"ele</w>":3056,"ellos</w>":3057,"reer":3058,"reth</w>":3059,"reoe</w>":3060,"reent</w>":3061,"oest</w>":3062,"shut</w>":3063,"loss</w>":3064,"hole</w>":3065,"hoar</w>":3066,"hostl":3067,"sal</w>":3068,"sul":3069,"rus</w>":3070,"ruel</w>":3071,"ounter":3072,"iser":3073,"isdo":3074,"isses</w>":3075,"enture</w>":3076,"irth</w>":3077,"iron</w>":3078,"irtu":3079,"illd</w>":3080,"heaens</w>":3081,"sees</w>":3082,"ourse</w>":3083,"itter</w>":3084,"stron":3085,"streets</w>":3086,"trust</w>":3087,"herea":3088,"heer":3089,"olden</w>":3090,"atient</w>":3091,"oints</w>":3092,"drun":3093,"uiet</w>":3094,"insen</w>":3095,"dares</w>":3096,"raise</w>":3097,"need":3098,"needs</w>":3099,"lihts</w>":3100,"itiens</w>":3101,"learn</w>":3102,"soethin":3103,"tains</w>":3104,"ealous</w>":3105,"inute</w>":3106,"attend</w>":3107,"sadness</w>":3108,"uests</w>":3109,"intents</w>":3110,"lihtnin":3111,"eliee</w>":3112,"ohn</w>":3113,"entleoan</w>":3114,"eshre":3115,"torture</w>":3116,"hateul</w>":3117,"aroah</w>":3118,"rideroo":3119,"aour</w>":3120,"dle</w>":3121,"dent</w>":3122,"eenter</w>":3123,"hoo":3124,"ian</w>":3125,"nel":3126,"rd</w>":3127,"sd</w>":3128,"sons</w>":3129,"tst</w>":3130,"tes</w>":3131,"ture</w>":3132,"ues</w>":3133,"thi":3134,"ths</w>":3135,"ouse</w>":3136,"enes</w>":3137,"onsort</w>":3138,"stain":3139,"lie":3140,"ools</w>":3141,"lain":3142,"sir":3143,"sits</w>":3144,"ros":3145,"ross</w>":3146,"eart</w>":3147,"reious</w>":3148,"daliht</w>":3149,"told</w>":3150,"ird</w>":3151,"trul":3152,"ash</w>":3153,"rines</w>":3154,"terd</w>":3155,"dreat</w>":3156,"dauhters</w>":3157,"seret</w>":3158,"ield</w>":3159,"ae":3160,"ao":3161,"aor":3162,"aed</w>":3163,"aen</w>":3164,"aine</w>":3165,"alie</w>":3166,"aord</w>":3167,"aste</w>":3168,"alas</w>":3169,"aside</w>":3170,"aothear":3171,"doe</w>":3172,"dre":3173,"dell</w>":3174,"date</w>":3175,"drin":3176,"eo":3177,"ehane</w>":3178,"ethins</w>":3179,"hts</w>":3180,"hould</w>":3181,"hoose</w>":3182,"iin":3183,"ido":3184,"iend</w>":3185,"isad":3186,"iortal</w>":3187,"lse</w>":3188,"lus</w>":3189,"lends</w>":3190,"lush</w>":3191,"nto</w>":3192,"nes":3193,"nees</w>":3194,"oare</w>":3195,"ode":3196,"oder</w>":3197,"osed</w>":3198,"oad</w>":3199,"oder":3200,"ri</w>":3201,"ris</w>":3202,"ror":3203,"ras</w>":3204,"rins</w>":3205,"soo":3206,"sall</w>":3207,"sra":3208,"sent":3209,"sail</w>":3210,"tand</w>":3211,"tee":3212,"trou":3213,"teer</w>":3214,"tree</w>":3215,"touh</w>":3216,"teah</w>":3217,"uts</w>":3218,"uest</w>":3219,"thans</w>":3220,"thrust</w>":3221,"aned</w>":3222,"ants</w>":3223,"ead</w>":3224,"outhul</w>":3225,"ined</w>":3226,"inonst":3227,"ered</w>":3228,"erit":3229,"orshi":3230,"oression</w>":3231,"enin":3232,"enoun":3233,"ended</w>":3234,"ari":3235,"arin":3236,"areh":3237,"aroad</w>":3238,"one":3239,"onest</w>":3240,"oness</w>":3241,"onession</w>":3242,"eel":3243,"eeds</w>":3244,"ursu":3245,"urnin":3246,"urden</w>":3247,"urose</w>":3248,"urders</w>":3249,"urtains</w>":3250,"stas</w>":3251,"strea":3252,"stir":3253,"thes</w>":3254,"list</w>":3255,"liest</w>":3256,"lieness</w>":3257,"hilo":3258,"hire</w>":3259,"lauh</w>":3260,"laue</w>":3261,"lastin":3262,"alin":3263,"aloo":3264,"alost</w>":3265,"sist":3266,"sies</w>":3267,"sised</w>":3268,"rih":3269,"riin":3270,"rise</w>":3271,"ried</w>":3272,"rida":3273,"rison</w>":3274,"rosear":3275,"rotest</w>":3276,"atto":3277,"ellin":3278,"reied</w>":3279,"rethed</w>":3280,"shd</w>":3281,"shroud</w>":3282,"ailin":3283,"aithul</w>":3284,"loa":3285,"lost</w>":3286,"losed</w>":3287,"loath":3288,"deadl":3289,"unle</w>":3290,"unau":3291,"under":3292,"unlu":3293,"dish":3294,"disords</w>":3295,"shar":3296,"esu</w>":3297,"tidins</w>":3298,"suit</w>":3299,"sustane</w>":3300,"suosed</w>":3301,"ruled</w>":3302,"tos</w>":3303,"toad</w>":3304,"toard</w>":3305,"toil</w>":3306,"rather</w>":3307,"oune</w>":3308,"door</w>":3309,"ised</w>":3310,"isor</w>":3311,"irt":3312,"irrah</w>":3313,"ilri":3314,"seu":3315,"sets</w>":3316,"heal":3317,"seed</w>":3318,"seetest</w>":3319,"slan":3320,"slae</w>":3321,"eteen</w>":3322,"soh":3323,"soi":3324,"sot</w>":3325,"sole</w>":3326,"lease</w>":3327,"uliets</w>":3328,"deli":3329,"deliht</w>":3330,"deise</w>":3331,"deil</w>":3332,"rouse</w>":3333,"rouht</w>":3334,"assion</w>":3335,"ithdra":3336,"ontent</w>":3337,"ontrar":3338,"house":3339,"resent</w>":3340,"resses</w>":3341,"resentl":3342,"souht</w>":3343,"usan</w>":3344,"usiness</w>":3345,"dinner</w>":3346,"tinale</w>":3347,"hollo":3348,"haned</w>":3349,"thouhts</w>":3350,"anishd</w>":3351,"erinen</w>":3352,"reed":3353,"taen</w>":3354,"taste</w>":3355,"adaned</w>":3356,"hone":3357,"siles</w>":3358,"raised</w>":3359,"ourtes":3360,"ourteous</w>":3361,"ednes":3362,"solenit":3363,"etires</w>":3364,"itien</w>":3365,"oasion</w>":3366,"searh</w>":3367,"hildr":3368,"distur":3369,"adise</w>":3370,"adieu</w>":3371,"nihts</w>":3372,"nihtinale</w>":3373,"ronoune</w>":3374,"sense</w>":3375,"ealth</w>":3376,"allant</w>":3377,"deart</w>":3378,"huour</w>":3379,"eanin":3380,"hundred</w>":3381,"urderer</w>":3382,"idd":3383,"turns</w>":3384,"eauties</w>":3385,"ondut</w>":3386,"stands</w>":3387,"liert":3388,"aetions</w>":3389,"natural</w>":3390,"entio</w>":3391,"aternoon</w>":3392,"sirrah</w>":3393,"odest":3394,"sooth</w>":3395,"srath</w>":3396,"inonstant</w>":3397,"enounter</w>":3398,"arehend</w>":3399,"hilosoh":3400,"ridal</w>":3401,"loathsoe</w>":3402,"ednesda":3403,"aate</w>":3404,"nile</w>":3405,"ods</w>":3406,"rat</w>":3407,"rhe</w>":3408,"sun":3409,"ud</w>":3410,"udent</w>":3411,"thers</w>":3412,"anon</w>":3413,"anton</w>":3414,"iner</w>":3415,"hael</w>":3416,"ard":3417,"arel":3418,"nost</w>":3419,"ont</w>":3420,"stone</w>":3421,"stle</w>":3422,"stod</w>":3423,"hite</w>":3424,"oos</w>":3425,"lad</w>":3426,"alour</w>":3427,"roer":3428,"roan</w>":3429,"tiers</w>":3430,"reature</w>":3431,"raer</w>":3432,"raers</w>":3433,"dos</w>":3434,"ills</w>":3435,"seest</w>":3436,"heard</w>":3437,"stain</w>":3438,"erutios</w>":3439,"ihts</w>":3440,"raier</w>":3441,"aurenes</w>":3442,"horses</w>":3443,"slauhter</w>":3444,"slauhterd</w>":3445,"tune</w>":3446,"ountereit</w>":3447,"irtuous</w>":3448,"hildren</w>":3449,"ao</w>":3450,"ai</w>":3451,"aer":3452,"aer</w>":3453,"ait</w>":3454,"aas</w>":3455,"aore</w>":3456,"aear</w>":3457,"athin":3458,"aet":3459,"ashes</w>":3460,"ahor":3461,"aount</w>":3462,"dou":3463,"don":3464,"det</w>":3465,"dro":3466,"del":3467,"dene</w>":3468,"dearl":3469,"dsire</w>":3470,"drus</w>":3471,"eha":3472,"eor":3473,"eon</w>":3474,"edi":3475,"ethin":3476,"eant</w>":3477,"eul</w>":3478,"eui":3479,"euil":3480,"ehal":3481,"esised</w>":3482,"hoe":3483,"hans</w>":3484,"heed</w>":3485,"hre</w>":3486,"heel</w>":3487,"hree</w>":3488,"hrouh</w>":3489,"io</w>":3490,"ish":3491,"ilo":3492,"isor":3493,"iru":3494,"iee</w>":3495,"iul</w>":3496,"ision</w>":3497,"iort</w>":3498,"iied</w>":3499,"ities</w>":3500,"lo</w>":3501,"lor":3502,"les</w>":3503,"lor</w>":3504,"len</w>":3505,"lout</w>":3506,"lene</w>":3507,"lant</w>":3508,"lous</w>":3509,"loest</w>":3510,"na</w>":3511,"nest</w>":3512,"nder</w>":3513,"neath</w>":3514,"ndeed</w>":3515,"nouht</w>":3516,"nursed</w>":3517,"north":3518,"oin</w>":3519,"oat":3520,"ote</w>":3521,"oort":3522,"otin":3523,"oies</w>":3524,"oise</w>":3525,"oard</w>":3526,"oten</w>":3527,"oards</w>":3528,"oseu":3529,"ren":3530,"ror</w>":3531,"rut</w>":3532,"rel":3533,"rone</w>":3534,"rour":3535,"rant</w>":3536,"rane</w>":3537,"rate</w>":3538,"renh</w>":3539,"rals</w>":3540,"ratin":3541,"sno":3542,"sor</w>":3543,"shat</w>":3544,"sore</w>":3545,"sare</w>":3546,"sene</w>":3547,"sant</w>":3548,"salt</w>":3549,"ssed</w>":3550,"srin":3551,"sans</w>":3552,"snes</w>":3553,"tet</w>":3554,"tti":3555,"tas":3556,"trae</w>":3557,"tut":3558,"tless</w>":3559,"tail":3560,"tele</w>":3561,"ust":3562,"uet</w>":3563,"use":3564,"utin":3565,"ulin":3566,"uish</w>":3567,"uenh</w>":3568,"ular</w>":3569,"threa":3570,"thene</w>":3571,"thrie</w>":3572,"thron</w>":3573,"thats</w>":3574,"thirt":3575,"throne</w>":3576,"and":3577,"ann":3578,"anes</w>":3579,"anae</w>":3580,"anti":3581,"aners</w>":3582,"anit":3583,"antin":3584,"ansion</w>":3585,"anners</w>":3586,"eas</w>":3587,"eaer</w>":3588,"eaon</w>":3589,"eale</w>":3590,"eads</w>":3591,"eather</w>":3592,"eaest</w>":3593,"eased</w>":3594,"eaons</w>":3595,"eastin":3596,"oud</w>":3597,"oull</w>":3598,"ouhin":3599,"outrae</w>":3600,"inor":3601,"inst":3602,"inant</w>":3603,"instr":3604,"inonu":3605,"inetion</w>":3606,"instru":3607,"indred</w>":3608,"has</w>":3609,"hase</w>":3610,"ern</w>":3611,"eror":3612,"erur":3613,"erit</w>":3614,"erri":3615,"erine</w>":3616,"erent</w>":3617,"erous</w>":3618,"erson</w>":3619,"ersons</w>":3620,"eriul</w>":3621,"orl":3622,"orar":3623,"ored</w>":3624,"orie</w>":3625,"orood</w>":3626,"orear</w>":3627,"order</w>":3628,"orid</w>":3629,"orot</w>":3630,"orser</w>":3631,"orns</w>":3632,"oreit</w>":3633,"ened</w>":3634,"enher</w>":3635,"enus</w>":3636,"endan":3637,"eneral</w>":3638,"arse</w>":3639,"arro":3640,"arts</w>":3641,"arra":3642,"artin":3643,"arted</w>":3644,"arents</w>":3645,"aradise</w>":3646,"nose</w>":3647,"onu</w>":3648,"onth</w>":3649,"onsi":3650,"onda":3651,"ones":3652,"onusi":3653,"onden":3654,"oneit</w>":3655,"eels</w>":3656,"eetin":3657,"eelin":3658,"eesiht</w>":3659,"urin":3660,"urious</w>":3661,"ste":3662,"ston":3663,"sted</w>":3664,"store</w>":3665,"stout</w>":3666,"stones</w>":3667,"steal</w>":3668,"thest</w>":3669,"list":3670,"lied</w>":3671,"liel":3672,"liss</w>":3673,"lish</w>":3674,"hird</w>":3675,"ooted</w>":3676,"oolish</w>":3677,"lade</w>":3678,"latt":3679,"alse</w>":3680,"alli":3681,"alae</w>":3682,"allo":3683,"alers</w>":3684,"alled</w>":3685,"allos</w>":3686,"aloud</w>":3687,"siee</w>":3688,"siion</w>":3689,"riate</w>":3690,"rites</w>":3691,"roor":3692,"roen</w>":3693,"roans</w>":3694,"roses</w>":3695,"roser":3696,"roarin":3697,"eard</w>":3698,"earts</w>":3699,"ates</w>":3700,"atten":3701,"elo":3702,"elt</w>":3703,"eles</w>":3704,"eleen</w>":3705,"elonin":3706,"ellist</w>":3707,"reor":3708,"rein</w>":3709,"reoie</w>":3710,"reonin":3711,"retti":3712,"oeth</w>":3713,"oetie</w>":3714,"shon</w>":3715,"shoes</w>":3716,"shot</w>":3717,"ails</w>":3718,"airl":3719,"airies</w>":3720,"loel":3721,"lodin":3722,"deal</w>":3723,"unt":3724,"unru":3725,"untin":3726,"unnin":3727,"unless</w>":3728,"undone</w>":3729,"unorth":3730,"diin":3731,"dire":3732,"disu":3733,"diers</w>":3734,"dient</w>":3735,"disl":3736,"dious</w>":3737,"dial</w>":3738,"diser":3739,"disoe":3740,"disal</w>":3741,"dierent</w>":3742,"shaed</w>":3743,"shaen</w>":3744,"shaest</w>":3745,"share</w>":3746,"shados</w>":3747,"host</w>":3748,"holi":3749,"hoie</w>":3750,"hoarse</w>":3751,"essl":3752,"eseein":3753,"essen":3754,"til":3755,"tial</w>":3756,"reain</w>":3757,"reathed</w>":3758,"sorted</w>":3759,"sorros</w>":3760,"sau":3761,"sade</w>":3762,"sado</w>":3763,"sue</w>":3764,"suin":3765,"sustan":3766,"susiion</w>":3767,"rue</w>":3768,"ruth</w>":3769,"rushes</w>":3770,"toards</w>":3771,"tossed</w>":3772,"aua</w>":3773,"ral</w>":3774,"ouner</w>":3775,"ounsel":3776,"ounded</w>":3777,"does</w>":3778,"doors</w>":3779,"ishi":3780,"isure</w>":3781,"ented</w>":3782,"entreat</w>":3783,"entrane</w>":3784,"irs</w>":3785,"iled</w>":3786,"illin":3787,"ilris</w>":3788,"seul":3789,"heainess</w>":3790,"slees</w>":3791,"etre":3792,"etree</w>":3793,"ourin":3794,"ourses</w>":3795,"sold</w>":3796,"soar</w>":3797,"leaes</w>":3798,"ited</w>":3799,"itae</w>":3800,"itter":3801,"aaed</w>":3802,"ladl":3803,"deth</w>":3804,"dela":3805,"deotion</w>":3806,"desire</w>":3807,"delihts</w>":3808,"looin":3809,"trude</w>":3810,"ased</w>":3811,"asers</w>":3812,"assin":3813,"assado</w>":3814,"hearin":3815,"houh</w>":3816,"ttendan":3817,"heer</w>":3818,"held</w>":3819,"arries</w>":3820,"olue</w>":3821,"harlo":3822,"resh</w>":3823,"reset</w>":3824,"resene</w>":3825,"leisure</w>":3826,"souls</w>":3827,"ortl":3828,"ortals</w>":3829,"holer</w>":3830,"holds</w>":3831,"hanin":3832,"hanes</w>":3833,"ations</w>":3834,"ution</w>":3835,"estil":3836,"estale</w>":3837,"estal</w>":3838,"estial</w>":3839,"trai":3840,"trant</w>":3841,"trele</w>":3842,"trenher</w>":3843,"reels</w>":3844,"reetin":3845,"adan</w>":3846,"adenture</w>":3847,"utation</w>":3848,"drit</w>":3849,"dran</w>":3850,"dras</w>":3851,"tern</w>":3852,"terror</w>":3853,"sinular</w>":3854,"eerd</w>":3855,"eerlastin":3856,"honest":3857,"hels</w>":3858,"oert":3859,"oered</w>":3860,"taled</w>":3861,"uite</w>":3862,"theres</w>":3863,"ihtl":3864,"ihtst</w>":3865,"odd</w>":3866,"eneane</w>":3867,"eneies</w>":3868,"eneorth</w>":3869,"eneorard</w>":3870,"asters</w>":3871,"desend</w>":3872,"desair</w>":3873,"dles</w>":3874,"sered</w>":3875,"torhes</w>":3876,"dull</w>":3877,"duellist</w>":3878,"danin":3879,"eauteous</w>":3880,"edded</w>":3881,"deeied</w>":3882,"deesnes</w>":3883,"lust":3884,"luerin":3885,"naed</w>":3886,"ortunes</w>":3887,"sarlet</w>":3888,"ranis</w>":3889,"randsire</w>":3890,"ull":3891,"athd</w>":3892,"athers</w>":3893,"itiul</w>":3894,"soeties</w>":3895,"triuh</w>":3896,"tainted</w>":3897,"uilt":3898,"thanul</w>":3899,"hallene</w>":3900,"stinted</w>":3901,"horus</w>":3902,"heels</w>":3903,"lantern</w>":3904,"nihtl":3905,"oanish</w>":3906,"saints</w>":3907,"tedious</w>":3908,"iered</w>":3909,"natie</w>":3910,"uttin":3911,"inuire</w>":3912,"indos</w>":3913,"disourses</w>":3914,"aoner</w>":3915,"starts</w>":3916,"ehind</w>":3917,"uestion</w>":3918,"endure</w>":3919,"disosition</w>":3920,"eantie</w>":3921,"aliant</w>":3922,"deterine</w>":3923,"detestale</w>":3924,"surs</w>":3925,"sallo":3926,"soundin":3927,"soundl":3928,"airer</w>":3929,"aidenhead</w>":3930,"ossess</w>":3931,"iolent</w>":3932,"nuer</w>":3933,"otan</w>":3934,"otto":3935,"troth</w>":3936,"uarrellin":3937,"ornaent</w>":3938,"ornaents</w>":3939,"artisans</w>":3940,"urnt</w>":3941,"sulls</w>":3942,"sullen</w>":3943,"iserale</w>":3944,"hereater</w>":3945,"heerl":3946,"lieise</w>":3947,"rossin":3948,"aorous</w>":3949,"isadenture</w>":3950,"oderatel":3951,"rorou":3952,"sentene</w>":3953,"teeth</w>":3954,"troule</w>":3955,"eellent</w>":3956,"ursued</w>":3957,"streas</w>":3958,"riht":3959,"loathed</w>":3960,"underneath</w>":3961,"dishon":3962,"slander</w>":3963,"households</w>":3964,"euiled</w>":3965,"ilot</w>":3966,"irustane</w>":3967,"oseuies</w>":3968,"tailor</w>":3969,"instrels</w>":3970,"inonuo":3971,"instruents</w>":3972,"orarded</w>":3973,"onessor</w>":3974,"ondened</w>":3975,"latterin":3976,"roserous</w>":3977,"rettiest</w>":3978,"disoedient</w>":3979,"essener</w>":3980,"sustantial</w>":3981,"ounsellor</w>":3982,"seulhre</w>":3983,"itterl":3984,"ttendants</w>":3985,"ashd</w>":3986,"dress</w>":3987,"hunt</w>":3988,"ii":3989,"iou":3990,"iel":3991,"ihour</w>":3992,"loe":3993,"ned</w>":3994,"nins</w>":3995,"ono":3996,"rees</w>":3997,"sat":3998,"satter</w>":3999,"tra":4000,"anat":4001,"anton":4002,"anothers</w>":4003,"anerd</w>":4004,"eathers</w>":4005,"ousins</w>":4006,"ines</w>":4007,"inion</w>":4008,"erl":4009,"ertain</w>":4010,"ornins</w>":4011,"ena":4012,"eno":4013,"art":4014,"arth</w>":4015,"eedin":4016,"stle":4017,"stad</w>":4018,"strain</w>":4019,"siders</w>":4020,"rid</w>":4021,"rison":4022,"ella":4023,"eloed</w>":4024,"aiden</w>":4025,"uni":4026,"uns</w>":4027,"essd</w>":4028,"tide</w>":4029,"sast</w>":4030,"suers</w>":4031,"ruit</w>":4032,"rush</w>":4033,"toda":4034,"raen</w>":4035,"ounts</w>":4036,"isshaen</w>":4037,"irds</w>":4038,"eters</w>":4039,"etrees</w>":4040,"ourd</w>":4041,"ourt</w>":4042,"ourtiers</w>":4043,"soon":4044,"soled</w>":4045,"neihour</w>":4046,"hearst</w>":4047,"ontail":4048,"arrion</w>":4049,"seal</w>":4050,"usa</w>":4051,"usan":4052,"trees</w>":4053,"tald</w>":4054,"adst</w>":4055,"sinle</w>":4056,"tonues</w>":4057,"ossi":4058,"dun</w>":4059,"edu</w>":4060,"learned</w>":4061,"leedin":4062,"urderd</w>":4063,"ossis</w>":4064,"thih</w>":4065,"staind</w>":4066,"unausto":4067,"unaustod</w>":4068,"delier</w>":4069,"isortune</w>":4070,"tutor</w>":4071,"onusions</w>":4072,"roortion</w>":4073,"antons</w>":4074,"stleontail":4075,"au</w>":4076,"aet</w>":4077,"ahe</w>":4078,"aere</w>":4079,"ald</w>":4080,"asi":4081,"asa":4082,"aent</w>":4083,"aain":4084,"aess</w>":4085,"aears</w>":4086,"astr":4087,"aunt</w>":4088,"ahel":4089,"aents</w>":4090,"aords</w>":4091,"ahes</w>":4092,"asol":4093,"ael</w>":4094,"ahin":4095,"aels</w>":4096,"aetion</w>":4097,"ashed</w>":4098,"aended</w>":4099,"asets</w>":4100,"aened</w>":4101,"aeard</w>":4102,"auntin":4103,"ashaed</w>":4104,"asoled</w>":4105,"dd":4106,"dae</w>":4107,"dit</w>":4108,"doe":4109,"dru":4110,"dine</w>":4111,"dsoe</w>":4112,"dus</w>":4113,"dust</w>":4114,"drae</w>":4115,"dul</w>":4116,"ddin":4117,"derin":4118,"drie":4119,"dless</w>":4120,"dled</w>":4121,"dents</w>":4122,"dros</w>":4123,"dness</w>":4124,"doose</w>":4125,"dation</w>":4126,"drude</w>":4127,"dhood</w>":4128,"datel":4129,"dstron":4130,"dros":4131,"dstone</w>":4132,"dates</w>":4133,"eu":4134,"eth":4135,"een":4136,"eto</w>":4137,"eor</w>":4138,"ela":4139,"eld</w>":4140,"eie</w>":4141,"eda":4142,"eone</w>":4143,"eiht</w>":4144,"ede</w>":4145,"ede":4146,"eoes</w>":4147,"ehe":4148,"eol":4149,"eus":4150,"eot</w>":4151,"eost</w>":4152,"eerin":4153,"ehead</w>":4154,"edl":4155,"eire</w>":4156,"eits</w>":4157,"eoed</w>":4158,"eithal</w>":4159,"eun</w>":4160,"eenin":4161,"etossed</w>":4162,"eiled</w>":4163,"hu</w>":4164,"hsi":4165,"hri":4166,"hro":4167,"hut</w>":4168,"hore</w>":4169,"hra":4170,"hout</w>":4171,"hant</w>":4172,"hee</w>":4173,"hue</w>":4174,"hros</w>":4175,"hul":4176,"hns</w>":4177,"heneorth</w>":4178,"iu":4179,"iere</w>":4180,"isi":4181,"ids</w>":4182,"isa":4183,"ido</w>":4184,"iest</w>":4185,"iain":4186,"iure</w>":4187,"iees</w>":4188,"iane</w>":4189,"istr":4190,"ires":4191,"ierin":4192,"idie</w>":4193,"iies</w>":4194,"ientl":4195,"ided</w>":4196,"iortun":4197,"ishes</w>":4198,"idden</w>":4199,"iial</w>":4200,"ieah</w>":4201,"ishin":4202,"iatient</w>":4203,"isies</w>":4204,"ihael</w>":4205,"iened</w>":4206,"ideth</w>":4207,"idles</w>":4208,"ll":4209,"lt":4210,"len":4211,"lur":4212,"lour</w>":4213,"lone</w>":4214,"lear</w>":4215,"lent":4216,"lare</w>":4217,"lend</w>":4218,"lure</w>":4219,"lears</w>":4220,"lane</w>":4221,"lls</w>":4222,"llin":4223,"leed</w>":4224,"leel</w>":4225,"lars</w>":4226,"lenit":4227,"leness</w>":4228,"lourin":4229,"nea":4230,"nou":4231,"nha":4232,"nat</w>":4233,"nit</w>":4234,"nla":4235,"nut</w>":4236,"nle</w>":4237,"nir":4238,"nent</w>":4239,"nsee":4240,"nsel":4241,"neen</w>":4242,"nal</w>":4243,"nher":4244,"nuti":4245,"nton":4246,"north</w>":4247,"nser</w>":4248,"nouh</w>":4249,"nters</w>":4250,"nauht</w>":4251,"nains</w>":4252,"nthi":4253,"narro":4254,"ndras</w>":4255,"nuns</w>":4256,"ol</w>":4257,"oon":4258,"ost":4259,"oit</w>":4260,"osi":4261,"olo":4262,"ots</w>":4263,"ole</w>":4264,"oine</w>":4265,"oers</w>":4266,"oour":4267,"oene</w>":4268,"ols</w>":4269,"olain</w>":4270,"oans</w>":4271,"oorro":4272,"oated</w>":4273,"oist":4274,"oil</w>":4275,"oortun":4276,"odies</w>":4277,"oation</w>":4278,"oass</w>":4279,"oounds</w>":4280,"oals</w>":4281,"rs</w>":4282,"ra</w>":4283,"rst":4284,"rood</w>":4285,"rind</w>":4286,"rati":4287,"rons</w>":4288,"ratt":4289,"ralin":4290,"sli":4291,"san</w>":4292,"sith</w>":4293,"sour":4294,"sears</w>":4295,"sale</w>":4296,"srae</w>":4297,"sres":4298,"sents</w>":4299,"sars</w>":4300,"slas</w>":4301,"ssho":4302,"sness</w>":4303,"ssar":4304,"sread</w>":4305,"sends</w>":4306,"srun":4307,"sall":4308,"sunder</w>":4309,"sounds</w>":4310,"sailin":4311,"sails</w>":4312,"ta</w>":4313,"tan":4314,"tea":4315,"toe</w>":4316,"tor</w>":4317,"tit</w>":4318,"tere</w>":4319,"tsi":4320,"tel":4321,"tre":4322,"tter</w>":4323,"tall</w>":4324,"tould</w>":4325,"tsu":4326,"tend</w>":4327,"tane</w>":4328,"tins</w>":4329,"tarr":4330,"test":4331,"trie</w>":4332,"teth</w>":4333,"tread</w>":4334,"teat</w>":4335,"tool</w>":4336,"tail</w>":4337,"teats</w>":4338,"treason</w>":4339,"traes</w>":4340,"tard":4341,"touhin":4342,"ua</w>":4343,"uer</w>":4344,"uno":4345,"ued</w>":4346,"uor</w>":4347,"uae</w>":4348,"uit</w>":4349,"uds</w>":4350,"uther</w>":4351,"ude</w>":4352,"uent</w>":4353,"ueen</w>":4354,"uerin":4355,"uled</w>":4356,"uire</w>":4357,"usto":4358,"uaint</w>":4359,"ustl":4360,"uali":4361,"uentio</w>":4362,"uote</w>":4363,"uines</w>":4364,"thl":4365,"thin</w>":4366,"thri":4367,"thro":4368,"thru":4369,"thart</w>":4370,"thsoe</w>":4371,"throu":4372,"thens</w>":4373,"thros</w>":4374,"thorn</w>":4375,"thread</w>":4376,"thie":4377,"third</w>":4378,"tharted</w>":4379,"thull":4380,"thasa":4381,"anl":4382,"ano":4383,"anr":4384,"anin":4385,"anle</w>":4386,"anlie</w>":4387,"ando":4388,"anol":4389,"andin":4390,"anhol":4391,"anest":4392,"antr":4393,"anta":4394,"andra":4395,"anel</w>":4396,"anders</w>":4397,"anels</w>":4398,"aneli":4399,"anner</w>":4400,"antle</w>":4401,"anrut</w>":4402,"antas":4403,"anuet</w>":4404,"anuish</w>":4405,"andles</w>":4406,"anusan":4407,"ansres":4408,"ead":4409,"eain":4410,"east":4411,"eald</w>":4412,"eaen</w>":4413,"eaent</w>":4414,"eals</w>":4415,"eathed</w>":4416,"eaten</w>":4417,"easur":4418,"easts</w>":4419,"eauts</w>":4420,"outs</w>":4421,"oule</w>":4422,"oura":4423,"ouene</w>":4424,"outr":4425,"ini":4426,"inh</w>":4427,"inur":4428,"inter</w>":4429,"inun":4430,"indi":4431,"inau":4432,"inold</w>":4433,"intru":4434,"indin":4435,"inue</w>":4436,"innin":4437,"inist":4438,"inded</w>":4439,"indl":4440,"inite</w>":4441,"inten":4442,"inured</w>":4443,"ineti":4444,"indre":4445,"ineor":4446,"inited</w>":4447,"inoation</w>":4448,"hai</w>":4449,"hain</w>":4450,"hari":4451,"haers</w>":4452,"hail":4453,"haunt</w>":4454,"hauh":4455,"halt</w>":4456,"hatr":4457,"haless</w>":4458,"haos</w>":4459,"hated</w>":4460,"haior</w>":4461,"hairs</w>":4462,"haeth":4463,"ero</w>":4464,"erh</w>":4465,"era</w>":4466,"erer":4467,"erae</w>":4468,"erniht</w>":4469,"erest</w>":4470,"ersel":4471,"erane</w>":4472,"eruse</w>":4473,"erhan":4474,"erless</w>":4475,"eril</w>":4476,"erhane</w>":4477,"ersar":4478,"erured</w>":4479,"erni":4480,"erhood</w>":4481,"eretion</w>":4482,"erun</w>":4483,"ersal</w>":4484,"erants</w>":4485,"erdon":4486,"erhas</w>":4487,"eressl":4488,"erhant</w>":4489,"ernal</w>":4490,"orst</w>":4491,"orter</w>":4492,"orda":4493,"orts</w>":4494,"orsa":4495,"oris":4496,"oret":4497,"orous</w>":4498,"oress</w>":4499,"orate</w>":4500,"oral</w>":4501,"orne</w>":4502,"orents</w>":4503,"oreous</w>":4504,"orsear</w>":4505,"orsel</w>":4506,"orein</w>":4507,"orsooth</w>":4508,"orities</w>":4509,"ordial</w>":4510,"orehead</w>":4511,"oridden</w>":4512,"orerun</w>":4513,"enl":4514,"enn":4515,"ena</w>":4516,"enur":4517,"enae</w>":4518,"enal":4519,"ensi":4520,"enore</w>":4521,"ensin</w>":4522,"endl":4523,"enil</w>":4524,"enrih</w>":4525,"enants</w>":4526,"ennorth":4527,"eniered</w>":4528,"enrossin":4529,"enientl":4530,"ara":4531,"arh</w>":4532,"ares</w>":4533,"ared</w>":4534,"arour</w>":4535,"ariht</w>":4536,"arent":4537,"arent</w>":4538,"arees</w>":4539,"arit":4540,"aree</w>":4541,"araid</w>":4542,"arnin":4543,"arish</w>":4544,"arise</w>":4545,"arties</w>":4546,"arain</w>":4547,"arhane</w>":4548,"arns</w>":4549,"artl":4550,"araour</w>":4551,"arues</w>":4552,"areul</w>":4553,"arlous</w>":4554,"arthest</w>":4555,"aruent</w>":4556,"nol":4557,"nold</w>":4558,"notie</w>":4559,"noort":4560,"noses</w>":4561,"noted</w>":4562,"nolean</w>":4563,"notes</w>":4564,"onur":4565,"oned</w>":4566,"ondr":4567,"onile</w>":4568,"ondu":4569,"onlu":4570,"onured</w>":4571,"onounds</w>":4572,"onid":4573,"onert</w>":4574,"onseu":4575,"onsorted</w>":4576,"onsue</w>":4577,"onsents</w>":4578,"onthl":4579,"onenientl":4580,"onarh</w>":4581,"eeer</w>":4582,"eeie</w>":4583,"eeers</w>":4584,"eeerin":4585,"eeish</w>":4586,"eeless</w>":4587,"eess</w>":4588,"eesile</w>":4589,"eetle</w>":4590,"eeution</w>":4591,"urer</w>":4592,"uror":4593,"ures</w>":4594,"urat":4595,"urle</w>":4596,"urne":4597,"urns</w>":4598,"urial</w>":4599,"urni":4600,"urlind</w>":4601,"urtain</w>":4602,"urhase</w>":4603,"urthest</w>":4604,"stae</w>":4605,"stat":4606,"stare</w>":4607,"stair</w>":4608,"stale</w>":4609,"stol":4610,"steer":4611,"stul":4612,"strains</w>":4613,"stains</w>":4614,"stools</w>":4615,"steeds</w>":4616,"stealth</w>":4617,"steads</w>":4618,"stiled</w>":4619,"steals</w>":4620,"thets</w>":4621,"theti":4622,"theirs</w>":4623,"thedness</w>":4624,"lia</w>":4625,"lier</w>":4626,"liit</w>":4627,"liers</w>":4628,"lide</w>":4629,"lious</w>":4630,"liit":4631,"liar</w>":4632,"liee</w>":4633,"lisin":4634,"lition</w>":4635,"liars</w>":4636,"liits</w>":4637,"liion</w>":4638,"liuid</w>":4639,"liuor</w>":4640,"hiha":4641,"hill</w>":4642,"hise</w>":4643,"hist</w>":4644,"hiel":4645,"hiter</w>":4646,"hide":4647,"histl":4648,"hiserin":4649,"histle</w>":4650,"hihost</w>":4651,"ooin":4652,"ooes</w>":4653,"oosed</w>":4654,"oolos</w>":4655,"oodl":4656,"oosite</w>":4657,"oosition</w>":4658,"las":4659,"lath</w>":4660,"laon</w>":4661,"laour</w>":4662,"ladi":4663,"lats</w>":4664,"laers</w>":4665,"laent</w>":4666,"lauh":4667,"latr":4668,"lass</w>":4669,"lash</w>":4670,"lael</w>":4671,"laues</w>":4672,"laentio</w>":4673,"latel":4674,"alds</w>":4675,"alent":4676,"alse":4677,"allin":4678,"alder":4679,"althouh</w>":4680,"alentio</w>":4681,"aleul</w>":4682,"althasa":4683,"sih</w>":4684,"sill</w>":4685,"sion":4686,"siri":4687,"siter</w>":4688,"sitt":4689,"silt</w>":4690,"sited</w>":4691,"sirest</w>":4692,"siious</w>":4693,"sides</w>":4694,"sidene</w>":4695,"sitless</w>":4696,"ris":4697,"ril</w>":4698,"riand</w>":4699,"riour</w>":4700,"riel":4701,"rile</w>":4702,"riee</w>":4703,"ritin":4704,"rishes</w>":4705,"riend":4706,"rides</w>":4707,"rienin":4708,"ridd":4709,"riendl":4710,"rot</w>":4711,"rose</w>":4712,"rost</w>":4713,"rooe</w>":4714,"roter</w>":4715,"rodi":4716,"rode</w>":4717,"rote</w>":4718,"roane</w>":4719,"rostr":4720,"roise</w>":4721,"rother":4722,"rolou":4723,"rotten</w>":4724,"roised</w>":4725,"roaate</w>":4726,"rothers</w>":4727,"roision</w>":4728,"roaners</w>":4729,"roeedin":4730,"roided</w>":4731,"roanin":4732,"rothets</w>":4733,"roliit":4734,"eare</w>":4735,"earh</w>":4736,"earl</w>":4737,"earthen</w>":4738,"earlin":4739,"earthu":4740,"earull":4741,"ata</w>":4742,"ator</w>":4743,"atie</w>":4744,"atti":4745,"ature</w>":4746,"atlin":4747,"ataes</w>":4748,"atta":4749,"atain</w>":4750,"atron</w>":4751,"atoies</w>":4752,"attainted</w>":4753,"eld":4754,"elon":4755,"elon</w>":4756,"elen</w>":4757,"ells</w>":4758,"elder</w>":4759,"elled</w>":4760,"elanhol":4761,"elouene</w>":4762,"elena</w>":4763,"redi":4764,"reti":4765,"redo":4766,"rese":4767,"reene</w>":4768,"reol":4769,"reuse</w>":4770,"reose</w>":4771,"reort</w>":4772,"redee":4773,"resol":4774,"reoed</w>":4775,"reion</w>":4776,"resort</w>":4777,"restor":4778,"rests</w>":4779,"reuest</w>":4780,"reliest</w>":4781,"resets</w>":4782,"resole</w>":4783,"reented</w>":4784,"reutation</w>":4785,"redress</w>":4786,"reonile</w>":4787,"rethedness</w>":4788,"reliion</w>":4789,"residene</w>":4790,"oel</w>":4791,"oether</w>":4792,"oeul</w>":4793,"shin</w>":4794,"shit</w>":4795,"shell</w>":4796,"shun":4797,"shore</w>":4798,"shans</w>":4799,"sheet</w>":4800,"shrie":4801,"shrine</w>":4802,"sheath</w>":4803,"shries</w>":4804,"shool</w>":4805,"shrun":4806,"shinin":4807,"sheres</w>":4808,"shuts</w>":4809,"shried</w>":4810,"sheles</w>":4811,"shortl":4812,"sheathed</w>":4813,"shoolos</w>":4814,"aise</w>":4815,"aion</w>":4816,"aile</w>":4817,"aiti":4818,"aitin":4819,"aire</w>":4820,"aiui":4821,"airest</w>":4822,"aident</w>":4823,"aidents</w>":4824,"aithull":4825,"ailiar</w>":4826,"dash</w>":4827,"daint":4828,"dashin":4829,"loi":4830,"lode</w>":4831,"losel":4832,"loins</w>":4833,"loerin":4834,"loset</w>":4835,"lodes</w>":4836,"loered</w>":4837,"lothes</w>":4838,"lollin":4839,"death":4840,"dealin":4841,"deaths</w>":4842,"unan":4843,"unha":4844,"unrea":4845,"unsa":4846,"unir":4847,"unind</w>":4848,"unlea":4849,"unade</w>":4850,"unound</w>":4851,"unrest</w>":4852,"unlean</w>":4853,"unnon</w>":4854,"unthan":4855,"unhal":4856,"unadi":4857,"unier":4858,"unseen</w>":4859,"unstu":4860,"unsatisied</w>":4861,"uneral</w>":4862,"unnatural</w>":4863,"unsustantial</w>":4864,"unashed</w>":4865,"unurni":4866,"unattainted</w>":4867,"dit":4868,"dier</w>":4869,"dise</w>":4870,"died</w>":4871,"disha":4872,"disa":4873,"diine</w>":4874,"dise":4875,"distr":4876,"diate</w>":4877,"dire</w>":4878,"diite</w>":4879,"disar":4880,"disol":4881,"dish</w>":4882,"dires</w>":4883,"diinin":4884,"diatel":4885,"dieu</w>":4886,"diision</w>":4887,"diored</w>":4888,"diideth</w>":4889,"shad":4890,"hos</w>":4891,"hoin":4892,"hoes</w>":4893,"hoel":4894,"hoars</w>":4895,"eson</w>":4896,"essa":4897,"essel":4898,"tition</w>":4899,"tish</w>":4900,"title</w>":4901,"tisted</w>":4902,"titoe</w>":4903,"reas</w>":4904,"reah</w>":4905,"reathe</w>":4906,"reater</w>":4907,"reail":4908,"reate</w>":4909,"reated</w>":4910,"reahes</w>":4911,"reatest</w>":4912,"reaths</w>":4913,"reathes</w>":4914,"sorr":4915,"sath":4916,"saer</w>":4917,"sathe</w>":4918,"saore</w>":4919,"saet":4920,"saue</w>":4921,"sadl":4922,"sass</w>":4923,"sashin":4924,"sadoes</w>":4925,"sud</w>":4926,"suet</w>":4927,"sule</w>":4928,"suis":4929,"suir":4930,"suse":4931,"suets</w>":4932,"suited</w>":4933,"ruted</w>":4934,"rudene</w>":4935,"ruio</w>":4936,"tot</w>":4937,"toer</w>":4938,"toes</w>":4939,"toise</w>":4940,"aule</w>":4941,"auent":4942,"auain":4943,"aused</w>":4944,"aule":4945,"auses</w>":4946,"ault":4947,"ausadoes</w>":4948,"raart</w>":4949,"rash</w>":4950,"raenin":4951,"radit</w>":4952,"rassho":4953,"ounest</w>":4954,"ountr":4955,"oundst</w>":4956,"oundost</w>":4957,"ountain</w>":4958,"oundless</w>":4959,"dod":4960,"doin":4961,"doen</w>":4962,"dole":4963,"dotin":4964,"dotr":4965,"isae</w>":4966,"isan</w>":4967,"isarried</w>":4968,"isation</w>":4969,"iseha":4970,"islant</w>":4971,"issue</w>":4972,"issuin":4973,"enters</w>":4974,"entous</w>":4975,"entre</w>":4976,"entured</w>":4977,"enteost</w>":4978,"entreated</w>":4979,"ires</w>":4980,"ired</w>":4981,"iret</w>":4982,"irle</w>":4983,"irls</w>":4984,"irled</w>":4985,"ill":4986,"ilin":4987,"iles</w>":4988,"ilul</w>":4989,"illed</w>":4990,"illes":4991,"illan":4992,"ildoose</w>":4993,"seie</w>":4994,"sett":4995,"seerin":4996,"sedu":4997,"seial</w>":4998,"seeral</w>":4999,"seerit":5000,"seerest</w>":5001,"heat</w>":5002,"headstron":5003,"heaenl":5004,"seed":5005,"seeh</w>":5006,"seeter</w>":5007,"seeds</w>":5008,"seedin":5009,"seetin":5010,"seetl":5011,"seeten</w>":5012,"seeteats</w>":5013,"thinl":5014,"thinin":5015,"thinst</w>":5016,"slu":5017,"sleen</w>":5018,"slut":5019,"slend":5020,"etin":5021,"etis</w>":5022,"eted</w>":5023,"etae</w>":5024,"etro":5025,"etain</w>":5026,"etrar":5027,"ettle</w>":5028,"eteor</w>":5029,"etua</w>":5030,"eternal</w>":5031,"etorts</w>":5032,"etruio</w>":5033,"ourae</w>":5034,"ourts</w>":5035,"ourne":5036,"ourners</w>":5037,"soes</w>":5038,"soen</w>":5039,"solae</w>":5040,"sotest</w>":5041,"soonest</w>":5042,"selt</w>":5043,"selers</w>":5044,"seless</w>":5045,"selane</w>":5046,"sells</w>":5047,"sellin":5048,"ainl":5049,"ainin":5050,"ainter</w>":5051,"aints</w>":5052,"ainess</w>":5053,"ainted</w>":5054,"aintl":5055,"aintains</w>":5056,"leas</w>":5057,"leain":5058,"least</w>":5059,"leadin":5060,"leasant</w>":5061,"itor":5062,"iture</w>":5063,"ittin":5064,"itrai":5065,"aasee</w>":5066,"lades</w>":5067,"ladder</w>":5068,"ladshi":5069,"ladders</w>":5070,"nets</w>":5071,"nehe":5072,"neither</w>":5073,"nelia</w>":5074,"deand</w>":5075,"deout</w>":5076,"deene</w>":5077,"deend</w>":5078,"desite</w>":5079,"desised</w>":5080,"deeased</w>":5081,"deourin":5082,"deiane</w>":5083,"deorities</w>":5084,"desirest</w>":5085,"dediate</w>":5086,"loose</w>":5087,"loost</w>":5088,"looed</w>":5089,"stroe</w>":5090,"straner</w>":5091,"stranled</w>":5092,"straners</w>":5093,"strataes</w>":5094,"roue</w>":5095,"rouds</w>":5096,"trust":5097,"truet</w>":5098,"asd</w>":5099,"asin":5100,"aset</w>":5101,"ashi":5102,"assel":5103,"assae</w>":5104,"assure</w>":5105,"asunder</w>":5106,"assist":5107,"assoi":5108,"assailin":5109,"hearted</w>":5110,"heareth</w>":5111,"heartless</w>":5112,"heartsi":5113,"ontet</w>":5114,"ontinu":5115,"ontrat</w>":5116,"ontinue</w>":5117,"ontaion</w>":5118,"ontradit</w>":5119,"ontainin":5120,"herous</w>":5121,"herrin":5122,"herish</w>":5123,"herein</w>":5124,"hereon</w>":5125,"herald</w>":5126,"hereto</w>":5127,"herishin":5128,"heralds</w>":5129,"heretis</w>":5130,"hurr":5131,"hurl</w>":5132,"hurdle</w>":5133,"anian</w>":5134,"anianusan":5135,"heers</w>":5136,"heerin":5137,"heuerin":5138,"older</w>":5139,"olins</w>":5140,"oldin":5141,"ollos</w>":5142,"olloer</w>":5143,"oldl":5144,"olloers</w>":5145,"ollar</w>":5146,"ollars</w>":5147,"olliers</w>":5148,"usied</w>":5149,"harsh</w>":5150,"resin</w>":5151,"resae</w>":5152,"ressed</w>":5153,"reserin":5154,"rino":5155,"rinin":5156,"rindstone</w>":5157,"season</w>":5158,"leer</w>":5159,"leans</w>":5160,"leents</w>":5161,"lesti":5162,"leoat":5163,"south</w>":5164,"usurer</w>":5165,"ortniht</w>":5166,"ortentous</w>":5167,"dined</w>":5168,"dinit":5169,"diniied</w>":5170,"tinle</w>":5171,"holder</w>":5172,"staes</w>":5173,"staed</w>":5174,"handsoe</w>":5175,"atied</w>":5176,"lint</w>":5177,"lineaent</w>":5178,"einners</w>":5179,"ests</w>":5180,"estee":5181,"estate</w>":5182,"esterin":5183,"estard</w>":5184,"estride</w>":5185,"esterniht</w>":5186,"estrides</w>":5187,"uhant</w>":5188,"trun":5189,"trane</w>":5190,"trann":5191,"treles</w>":5192,"transres":5193,"trooin":5194,"erinan</w>":5195,"reet</w>":5196,"reel</w>":5197,"reees</w>":5198,"reeit</w>":5199,"reedies</w>":5200,"reetale</w>":5201,"reetins</w>":5202,"reetition</w>":5203,"taer</w>":5204,"taern</w>":5205,"tasted</w>":5206,"adl":5207,"add</w>":5208,"aden</w>":5209,"adane</w>":5210,"addin":5211,"added</w>":5212,"adness</w>":5213,"addle</w>":5214,"addled</w>":5215,"adersar":5216,"adaent</w>":5217,"oiner</w>":5218,"oined</w>":5219,"ointure</w>":5220,"utl":5221,"utt</w>":5222,"utar":5223,"uteth</w>":5224,"uturn":5225,"orrod</w>":5226,"drins</w>":5227,"terruted</w>":5228,"sini":5229,"siner</w>":5230,"siness</w>":5231,"sinal</w>":5232,"sinners</w>":5233,"sinleness</w>":5234,"rieane</w>":5235,"rieanes</w>":5236,"deree</w>":5237,"dereed</w>":5238,"deried</w>":5239,"dreaers</w>":5240,"dreadul</w>":5241,"eered</w>":5242,"eeror</w>":5243,"eerenes</w>":5244,"eeriened</w>":5245,"eerature</w>":5246,"helin":5247,"oerd</w>":5248,"oert</w>":5249,"oerin</w>":5250,"oerul</w>":5251,"oerset</w>":5252,"oeration</w>":5253,"oerein</w>":5254,"oerthron</w>":5255,"oernent</w>":5256,"oerthros</w>":5257,"oerhelin":5258,"osured</w>":5259,"ossaer</w>":5260,"tales</w>":5261,"tallo":5262,"uiu":5263,"uio</w>":5264,"uil</w>":5265,"uids</w>":5266,"uiers</w>":5267,"uide</w>":5268,"uierin":5269,"ountains</w>":5270,"istain":5271,"istresses</w>":5272,"lessin":5273,"lesser</w>":5274,"lessins</w>":5275,"thereo":5276,"thereithal</w>":5277,"draer</w>":5278,"draon</w>":5279,"silest</w>":5280,"sileness</w>":5281,"ihtin":5282,"odes</w>":5283,"odds</w>":5284,"odden</w>":5285,"oddl":5286,"eneie</w>":5287,"enediite</w>":5288,"asterless</w>":5289,"desr":5290,"desent</w>":5291,"oised</w>":5292,"oission</w>":5293,"entler</w>":5294,"sleein":5295,"dared</w>":5296,"darest</w>":5297,"dartin":5298,"darness</w>":5299,"seres</w>":5300,"serent</w>":5301,"serents</w>":5302,"serious</w>":5303,"serants</w>":5304,"torn</w>":5305,"torent</w>":5306,"torented</w>":5307,"tortoise</w>":5308,"duats</w>":5309,"daner</w>":5310,"danes</w>":5311,"danation</w>":5312,"danerous</w>":5313,"rait":5314,"raious</w>":5315,"shoerin":5316,"shoeaer</w>":5317,"ourtshi":5318,"edlar</w>":5319,"eddle</w>":5320,"aura</w>":5321,"deeit</w>":5322,"deeds</w>":5323,"lusti":5324,"lushin":5325,"nathin":5326,"eronas</w>":5327,"loud":5328,"loud</w>":5329,"lourishes</w>":5330,"uarter</w>":5331,"denied</w>":5332,"denote</w>":5333,"needl":5334,"neessar":5335,"sarin":5336,"sarent</w>":5337,"sarlin":5338,"sariied</w>":5339,"sariies</w>":5340,"tened</w>":5341,"lihtl":5342,"soles</w>":5343,"solen</w>":5344,"solel":5345,"soldiers</w>":5346,"soldier</w>":5347,"ranour</w>":5348,"ranserin":5349,"ranisan</w>":5350,"ransarent</w>":5351,"ulse</w>":5352,"ulers</w>":5353,"ullin":5354,"ulness</w>":5355,"stol</w>":5356,"stole</w>":5357,"stoata</w>":5358,"etirin":5359,"etithed</w>":5360,"shirt</w>":5361,"shield</w>":5362,"athas</w>":5363,"athread</w>":5364,"iediatel":5365,"learnd</w>":5366,"learnin":5367,"learns</w>":5368,"olient</w>":5369,"olients</w>":5370,"rootion</w>":5371,"rooteth</w>":5372,"soetie</w>":5373,"tles</w>":5374,"tried</w>":5375,"trilin":5376,"triuhant</w>":5377,"triutar":5378,"tainin":5379,"thanins</w>":5380,"errand</w>":5381,"eeinate</w>":5382,"stint</w>":5383,"olloin":5384,"horrile</w>":5385,"horeson</w>":5386,"oahaers</w>":5387,"searated</w>":5388,"searhers</w>":5389,"stian</w>":5390,"stioes</w>":5391,"hills</w>":5392,"hildin":5393,"hildins</w>":5394,"hildhood</w>":5395,"hildish</w>":5396,"distane</w>":5397,"distilled</w>":5398,"distressed</w>":5399,"disteerature</w>":5400,"adired</w>":5401,"doos</w>":5402,"doosda":5403,"lants</w>":5404,"lanuish</w>":5405,"lanstleontail":5406,"lanuae</w>":5407,"ronin":5408,"roned</w>":5409,"sendin":5410,"senses</w>":5411,"senseless</w>":5412,"teth":5413,"elloshi":5414,"hinin":5415,"hinds</w>":5416,"ierio</w>":5417,"lettin":5418,"runs</w>":5419,"runaate</w>":5420,"utton</w>":5421,"utters</w>":5422,"uttered</w>":5423,"utterane</w>":5424,"oultie</w>":5425,"hainess</w>":5426,"laentation</w>":5427,"laentations</w>":5428,"attet</w>":5429,"attleents</w>":5430,"dislie</w>":5431,"disrae</w>":5432,"disraise</w>":5433,"disselers</w>":5434,"disreet</w>":5435,"dearer</w>":5436,"dearest</w>":5437,"dearted</w>":5438,"nient</w>":5439,"niees</w>":5440,"niee</w>":5441,"nield":5442,"reared</w>":5443,"onines</w>":5444,"stud":5445,"stule</w>":5446,"stulin":5447,"stuled</w>":5448,"stared</w>":5449,"stareth</w>":5450,"startles</w>":5451,"ehoeul</w>":5452,"huts</w>":5453,"huours</w>":5454,"huorous</w>":5455,"intend</w>":5456,"ininite</w>":5457,"endart</w>":5458,"endured</w>":5459,"onster</w>":5460,"onstrains</w>":5461,"streth</w>":5462,"strethes</w>":5463,"disoer":5464,"disoer</w>":5465,"disose</w>":5466,"disoered</w>":5467,"tieless</w>":5468,"ourseles</w>":5469,"lihtens</w>":5470,"lihtness</w>":5471,"hunr":5472,"leeds</w>":5473,"urdered</w>":5474,"alited</w>":5475,"alidit":5476,"alait":5477,"deterit":5478,"idle</w>":5479,"ohetua</w>":5480,"surease</w>":5481,"sureon</w>":5482,"sales</w>":5483,"salutation</w>":5484,"saluteth</w>":5485,"sounded</w>":5486,"turnin":5487,"eautiul</w>":5488,"interest</w>":5489,"interession</w>":5490,"interrut</w>":5491,"interhanin":5492,"ondae</w>":5493,"onderin":5494,"struen</w>":5495,"oodan</w>":5496,"oodellos</w>":5497,"entleanlie</w>":5498,"eddinda":5499,"aidenheads</w>":5500,"aidenhoo":5501,"ossessd</w>":5502,"aetite</w>":5503,"drier</w>":5504,"dried</w>":5505,"drile</w>":5506,"driellin":5507,"iolene</w>":5508,"iolentl":5509,"nuts</w>":5510,"nuers</w>":5511,"natures</w>":5512,"sonale</w>":5513,"tuners</w>":5514,"treads</w>":5515,"treadin":5516,"treasure</w>":5517,"treaherous</w>":5518,"uarrels</w>":5519,"uarrelled</w>":5520,"hastes</w>":5521,"hasten</w>":5522,"hastit":5523,"entious</w>":5524,"artial</w>":5525,"artiiial</w>":5526,"urnish</w>":5527,"reerse</w>":5528,"reerso</w>":5529,"reerene</w>":5530,"reerend</w>":5531,"ounterail</w>":5532,"irtues</w>":5533,"hereaout</w>":5534,"hereaouts</w>":5535,"heerul</w>":5536,"heeril</w>":5537,"drunard</w>":5538,"needul</w>":5539,"hoos</w>":5540,"neletin":5541,"stained</w>":5542,"stainless</w>":5543,"lainl":5544,"aeent</w>":5545,"aolo":5546,"aoard</w>":5547,"aordin":5548,"eole</w>":5549,"eosition</w>":5550,"idoed</w>":5551,"idolatr":5552,"isadentured</w>":5553,"odern</w>":5554,"roress</w>":5555,"sententious</w>":5556,"trouled</w>":5557,"aria</w>":5558,"ariale</w>":5559,"aritheti":5560,"oneie</w>":5561,"eellious</w>":5562,"ursuin":5563,"stirs</w>":5564,"stirrin":5565,"stirreth</w>":5566,"sisters</w>":5567,"sisterhood</w>":5568,"rihted</w>":5569,"undertae</w>":5570,"unluil":5571,"dishlout</w>":5572,"shars</w>":5573,"irtue</w>":5574,"ilriae</w>":5575,"health</w>":5576,"healths</w>":5577,"healthsoe</w>":5578,"slander":5579,"soiet":5580,"soiale</w>":5581,"deliiou":5582,"houseie</w>":5583,"iddlin":5584,"iddlesti":5585,"sunset</w>":5586,"ardonin":5587,"arellous</w>":5588,"arelessl":5589,"roerer</w>":5590,"aerer</w>":5591,"aertainin":5592,"aetin":5593,"aetera</w>":5594,"ahors</w>":5595,"ahorred</w>":5596,"doule</w>":5597,"doulet</w>":5598,"donriht</w>":5599,"droin":5600,"deloered</w>":5601,"ehaior</w>":5602,"ediine</w>":5603,"ediatel":5604,"euisite</w>":5605,"ehales</w>":5606,"hoeus</w>":5607,"hoeul</w>":5608,"isher</w>":5609,"ishane</w>":5610,"lorious</w>":5611,"oatrie</w>":5612,"oorted</w>":5613,"oortale</w>":5614,"renhin":5615,"rele":5616,"roure</w>":5617,"roures</w>":5618,"ustie</w>":5619,"usest</w>":5620,"usetin":5621,"threatened</w>":5622,"annerl":5623,"inorane</w>":5624,"inororate</w>":5625,"instant</w>":5626,"instrel</w>":5627,"erorin":5628,"eruries</w>":5629,"erril":5630,"errient</w>":5631,"orlds</w>":5632,"artino</w>":5633,"onsires</w>":5634,"onsiderin":5635,"listers</w>":5636,"alliane</w>":5637,"alliator</w>":5638,"attendin":5639,"attended</w>":5640,"eloent</w>":5641,"untauht</w>":5642,"untanled</w>":5643,"unrul":5644,"unruised</w>":5645,"unorthiest</w>":5646,"diinest</w>":5647,"direul</w>":5648,"diretion</w>":5649,"disute</w>":5650,"disuised</w>":5651,"disleasure</w>":5652,"disleased</w>":5653,"disern</w>":5654,"diserse</w>":5655,"holida":5656,"holidae</w>":5657,"tilts</w>":5658,"ishie":5659,"ishiied</w>":5660,"illinl":5661,"etreit":5662,"etreities</w>":5663,"harlots</w>":5664,"harlotr":5665,"estilent</w>":5666,"estilene</w>":5667,"traitor</w>":5668,"honestl":5669,"roroue</w>":5670,"roroued</w>":5671,"rihteous</w>":5672,"rihtness</w>":5673,"dishonourale</w>":5674,"iia</w>":5675,"ieldin":5676,"satisation</w>":5677,"trainin":5678,"anato":5679,"risoner</w>":5680,"ellada":5681,"unished</w>":5682,"sooner</w>":5683,"asired</w>":5684,"ahelor</w>":5685,"asoler</w>":5686,"doehouse</w>":5687,"drieth</w>":5688,"dateless</w>":5689,"eused</w>":5690,"ehests</w>":5691,"eolts</w>":5692,"euses</w>":5693,"edlars</w>":5694,"hristian</w>":5695,"hrase</w>":5696,"iute</w>":5697,"isitin":5698,"isalied</w>":5699,"iained</w>":5700,"istres</w>":5701,"iressin":5702,"iortuned</w>":5703,"lla</w>":5704,"lenthens</w>":5705,"lenten</w>":5706,"neade</w>":5707,"nouri":5708,"nlaued</w>":5709,"nironed</w>":5710,"nseel":5711,"nsele</w>":5712,"nherit</w>":5713,"nutials</w>":5714,"osterit":5715,"osier</w>":5716,"oourn</w>":5717,"oisterous</w>":5718,"oortunit":5719,"rstal</w>":5720,"ratise</w>":5721,"rattlin":5722,"soure</w>":5723,"sallest</w>":5724,"tands</w>":5725,"tresass</w>":5726,"testi":5727,"ualities</w>":5728,"thrills</w>":5729,"throats</w>":5730,"thrusts</w>":5731,"throuhout</w>":5732,"thieish</w>":5733,"anolede</w>":5734,"anestors</w>":5735,"antastioes</w>":5736,"andraes</w>":5737,"anelial</w>":5738,"eaint</w>":5739,"eastern</w>":5740,"easurin":5741,"ouraeous</w>":5742,"inuries</w>":5743,"inundation</w>":5744,"indite</w>":5745,"inausiious</w>":5746,"intrusion</w>":5747,"intended</w>":5748,"inetious</w>":5749,"indreds</w>":5750,"ineorale</w>":5751,"hariot</w>":5752,"hauht":5753,"hatred</w>":5754,"haethon</w>":5755,"ererse</w>":5756,"erhandise</w>":5757,"erniious</w>":5758,"ordained</w>":5759,"orsaen</w>":5760,"orisons</w>":5761,"orettin":5762,"enalt":5763,"ensie</w>":5764,"ennorths</w>":5765,"arentae</w>":5766,"aritratin":5767,"noortale</w>":5768,"onurations</w>":5769,"ondrous</w>":5770,"onduit</w>":5771,"onludes</w>":5772,"onidene</w>":5773,"onseuene</w>":5774,"urator":5775,"urneth</w>":5776,"statue</w>":5777,"stoln</w>":5778,"steerae</w>":5779,"stulest</w>":5780,"hideous</w>":5781,"histles</w>":5782,"ladird</w>":5783,"lauhs</w>":5784,"alentine</w>":5785,"alsehood</w>":5786,"alderan</w>":5787,"althasar</w>":5788,"sirits</w>":5789,"sittin":5790,"riendshi":5791,"riddlin":5792,"rodiious</w>":5793,"rostrate</w>":5794,"rotherhood</w>":5795,"roloue</w>":5796,"earliness</w>":5797,"earthuae</w>":5798,"attires</w>":5799,"attah</w>":5800,"rediaent</w>":5801,"retire</w>":5802,"redoinant</w>":5803,"resetie</w>":5804,"reolt</w>":5805,"resolution</w>":5806,"restoratie</w>":5807,"aiuities</w>":5808,"unreasonale</w>":5809,"unsaour":5810,"unleasin":5811,"unthanulness</w>":5812,"unhallo":5813,"unadised</w>":5814,"uniersal</w>":5815,"unurnished</w>":5816,"dishared</w>":5817,"disath</w>":5818,"distrauht</w>":5819,"disaraeent</w>":5820,"essaes</w>":5821,"essels</w>":5822,"reails</w>":5823,"suission</w>":5824,"suirrel</w>":5825,"suseted</w>":5826,"auentin":5827,"auaintane</w>":5828,"rasshoers</w>":5829,"doleul</w>":5830,"dotrine</w>":5831,"isehaed</w>":5832,"illeseein":5833,"illanous</w>":5834,"settled</w>":5835,"seduin":5836,"sluttish</w>":5837,"slendor</w>":5838,"etrarh</w>":5839,"itraio</w>":5840,"assistant</w>":5841,"assoiate</w>":5842,"ontinuane</w>":5843,"leoatra</w>":5844,"trannous</w>":5845,"transression</w>":5846,"uturned</w>":5847,"lustier</w>":5848,"neessaries</w>":5849,"ranserinterruted</w>":5850,"aidenhoods</w>":5851,"deliiousness</w>":5852,"ais</w>":5853,"aar":5854,"aon</w>":5855,"aear":5856,"aat":5857,"ado":5858,"ado</w>":5859,"aound</w>":5860,"aoundst</w>":5861,"dh":5862,"dn</w>":5863,"dent":5864,"dres":5865,"dsit</w>":5866,"duns</w>":5867,"dhearted</w>":5868,"ei":5869,"eit":5870,"eod</w>":5871,"eanished</w>":5872,"eih":5873,"eoot</w>":5874,"eanst</w>":5875,"hoeer</w>":5876,"htill</w>":5877,"hood":5878,"hdoor</w>":5879,"iea":5880,"ithen</w>":5881,"ithere</w>":5882,"ians</w>":5883,"ista":5884,"iond</w>":5885,"ls":5886,"lst</w>":5887,"lld</w>":5888,"lseein":5889,"nst</w>":5890,"nur":5891,"nil":5892,"ndst</w>":5893,"neted</w>":5894,"oti":5895,"oind</w>":5896,"otu":5897,"oanished</w>":5898,"ostin":5899,"rand</w>":5900,"rat":5901,"rond</w>":5902,"rtil":5903,"su</w>":5904,"sen</w>":5905,"sonin":5906,"ssd</w>":5907,"tu</w>":5908,"tat":5909,"tatter</w>":5910,"train</w>":5911,"teerd</w>":5912,"tstools</w>":5913,"tseduin":5914,"uo":5915,"uill</w>":5916,"uus</w>":5917,"uusi":5918,"uean</w>":5919,"uoard</w>":5920,"ueen":5921,"udent":5922,"tho":5923,"thd</w>":5924,"thor":5925,"this":5926,"thous</w>":5927,"three":5928,"theart</w>":5929,"thtreadin":5930,"anno":5931,"anon":5932,"anel":5933,"anell</w>":5934,"anate</w>":5935,"annon</w>":5936,"antoo":5937,"anstu":5938,"andle</w>":5939,"eather":5940,"eaths</w>":5941,"earied</w>":5942,"oush":5943,"ouse":5944,"oused</w>":5945,"outoo":5946,"outst</w>":5947,"ouhtill</w>":5948,"indsit</w>":5949,"haer":5950,"hael":5951,"hates</w>":5952,"hateer</w>":5953,"erhe</w>":5954,"ernd</w>":5955,"erseet</w>":5956,"erlin":5957,"erhead</w>":5958,"ertain":5959,"ersuited</w>":5960,"eroerd</w>":5961,"orh</w>":5962,"orel":5963,"orore</w>":5964,"orhear":5965,"orein":5966,"oreather</w>":5967,"oreathers</w>":5968,"enor</w>":5969,"enod</w>":5970,"enenh</w>":5971,"enhs</w>":5972,"enaour</w>":5973,"enoin</w>":5974,"ensiness</w>":5975,"enouhtill</w>":5976,"arr</w>":5977,"aran</w>":5978,"arhere</w>":5979,"arson</w>":5980,"artr":5981,"arsons</w>":5982,"areoot</w>":5983,"arthtreadin":5984,"onsor":5985,"oniht</w>":5986,"oners</w>":5987,"onlies</w>":5988,"oneal</w>":5989,"oneald</w>":5990,"eest</w>":5991,"eeed</w>":5992,"eetst</w>":5993,"ure":5994,"urnd</w>":5995,"ureell</w>":5996,"uroused</w>":5997,"stee":5998,"stra":5999,"star</w>":6000,"steed</w>":6001,"sttossed</w>":6002,"theo</w>":6003,"theis</w>":6004,"lirt</w>":6005,"lilld</w>":6006,"lirtil":6007,"hidead</w>":6008,"hidst</w>":6009,"hiss</w>":6010,"hite":6011,"hissd</w>":6012,"lai":6013,"laain":6014,"ales</w>":6015,"alld</w>":6016,"alours</w>":6017,"aleedin":6018,"sit":6019,"side":6020,"sider</w>":6021,"riet</w>":6022,"riars</w>":6023,"rod</w>":6024,"roand</w>":6025,"roess</w>":6026,"roar</w>":6027,"roard</w>":6028,"roerd</w>":6029,"roessd</w>":6030,"roeeer</w>":6031,"earer</w>":6032,"earst</w>":6033,"earers</w>":6034,"earaid</w>":6035,"atter":6036,"ellseein":6037,"reend</w>":6038,"relaid</w>":6039,"reiou":6040,"reoated</w>":6041,"reensiness</w>":6042,"relai":6043,"oedu":6044,"oeoanished</w>":6045,"oeeather":6046,"shine</w>":6047,"shraenin":6048,"sheod</w>":6049,"loerhead</w>":6050,"deathed</w>":6051,"dearied</w>":6052,"unloo":6053,"unhar":6054,"unish</w>":6055,"unhard</w>":6056,"untal":6057,"unlood":6058,"unstain</w>":6059,"untald</w>":6060,"unstaind</w>":6061,"distill</w>":6062,"hoate</w>":6063,"hoie":6064,"holoi":6065,"esreen</w>":6066,"esreend</w>":6067,"tier</w>":6068,"tithe</w>":6069,"tiond</w>":6070,"titheis</w>":6071,"rear</w>":6072,"reatur":6073,"reasons</w>":6074,"saae</w>":6075,"sains</w>":6076,"sains":6077,"saae":6078,"suied</w>":6079,"suao":6080,"ruit":6081,"rushd</w>":6082,"toallant</w>":6083,"austo":6084,"austod</w>":6085,"raens</w>":6086,"issheathed</w>":6087,"entst</w>":6088,"entertain</w>":6089,"entertain":6090,"ireeed</w>":6091,"selilld</w>":6092,"seetheart</w>":6093,"slest</w>":6094,"etnurse</w>":6095,"eturn</w>":6096,"eturnd</w>":6097,"ourtu":6098,"ourstained</w>":6099,"ourtier</w>":6100,"soer</w>":6101,"soten</w>":6102,"sotend</w>":6103,"soersuited</w>":6104,"selentle</w>":6105,"itan</w>":6106,"itans</w>":6107,"aasti":6108,"ladord</w>":6109,"nel</w>":6110,"neih":6111,"nedn</w>":6112,"dedroin":6113,"roused</w>":6114,"trule</w>":6115,"assd</w>":6116,"ithoutoo":6117,"ithenenh</w>":6118,"hearer</w>":6119,"heardst</w>":6120,"arrd</w>":6121,"hurhdoor</w>":6122,"arriae":6123,"arrionlies</w>":6124,"oled</w>":6125,"harnel":6126,"hardhearted</w>":6127,"harnel</w>":6128,"seast</w>":6129,"seald</w>":6130,"seasi":6131,"leholder</w>":6132,"usis</w>":6133,"hanusan":6134,"einiond</w>":6135,"estone</w>":6136,"reeed</w>":6137,"reeton</w>":6138,"reeerd</w>":6139,"adans</w>":6140,"ointstools</w>":6141,"dron</w>":6142,"drond</w>":6143,"ninae</w>":6144,"terand</w>":6145,"sinles":6146,"sinasoler</w>":6147,"riets</w>":6148,"loneeriened</w>":6149,"dersits</w>":6150,"dersit":6151,"dread</w>":6152,"tud</w>":6153,"tueen":6154,"oern</w>":6155,"oerel</w>":6156,"oerels</w>":6157,"oerheard</w>":6158,"oeranat":6159,"oererh</w>":6160,"oeranate</w>":6161,"oerheardst</w>":6162,"osthor":6163,"talst</w>":6164,"uied</w>":6165,"ista</w>":6166,"istlie</w>":6167,"isteer</w>":6168,"isterd</w>":6169,"isteerd</w>":6170,"lessend</w>":6171,"lessen</w>":6172,"silerseet</w>":6173,"insans</w>":6174,"eneanished</w>":6175,"seretnurse</w>":6176,"torhearer</w>":6177,"husand":6178,"husando":6179,"rail</w>":6180,"raiers</w>":6181,"railst</w>":6182,"antuas</w>":6183,"ourts":6184,"ourtsies</w>":6185,"eronao":6186,"needst</w>":6187,"neeloed</w>":6188,"ulld</w>":6189,"osalines</w>":6190,"atho":6191,"learnedn</w>":6192,"olish</w>":6193,"olishraenin":6194,"tainlea":6195,"onuer</w>":6196,"onuerd</w>":6197,"stinost</w>":6198,"ollod</w>":6199,"oahoo":6200,"searst</w>":6201,"stist</w>":6202,"hilds</w>":6203,"disteer</w>":6204,"distilld</w>":6205,"disteerd</w>":6206,"osos</w>":6207,"ronst</w>":6208,"saintseduin":6209,"elloernd</w>":6210,"ierooted</w>":6211,"letterand</w>":6212,"runn</w>":6213,"runaa":6214,"runaas</w>":6215,"runnst</w>":6216,"uttst</w>":6217,"uttshat</w>":6218,"alln</w>":6219,"allst</w>":6220,"allseein":6221,"allheerin":6222,"loinealous</w>":6223,"aonsoes</w>":6224,"dearloed</w>":6225,"larod</w>":6226,"rearard</w>":6227,"stud</w>":6228,"starros":6229,"slod</w>":6230,"onstale</w>":6231,"onstales</w>":6232,"eand":6233,"huntsu":6234,"turnd</w>":6235,"interr</w>":6236,"interrd</w>":6237,"oodorro":6238,"aloner</w>":6239,"aloners</w>":6240,"eddined</w>":6241,"shines</w>":6242,"aidenidoed</w>":6243,"rainut</w>":6244,"serinreature</w>":6245,"serinreatur":6246,"tunes</w>":6247,"ountereit":6248,"irtuoush":6249,"hoodin":6250,"thioe</w>":6251,"thioes</w>":6252,"lieear":6253,"laintain</w>":6254,"laintainlea":6255,"sirreerene</w>":6256,"truleed</w>":6257,"teest</w>":6258,"teesttossed</w>":6259,"orshid</w>":6260,"sharround</w>":6261,"delierd</w>":6262,"hildrens</w>":6263,"disturd</w>":6264,"suns</w>":6265,"ardond</w>":6266,"arelld</w>":6267,"dells</w>":6268,"dells":6269,"euil</w>":6270,"euild</w>":6271,"isortunes</w>":6272,"renon</w>":6273,"renond</w>":6274,"tassel</w>":6275,"tasselentle</w>":6276,"tutord</w>":6277,"threaten</w>":6278,"threatend</w>":6279,"andleholder</w>":6280,"orldh":6281,"orldearied</w>":6282,"onusion</w>":6283,"lister</w>":6284,"listerd</w>":6285,"roortiond</w>":6286,"tillain":6287,"sallod</w>":6288,"dishonour</w>":6289,"dishonourd</w>":6290,"latterinseet</w>":6291,"iihanusan":6292,"ielded</w>":6293,"loeson":6294,"loedeourin":6295,"loeerorin":6296,"ononers</w>":6297,"satterd</w>":6298,"traind</w>":6299,"erlin</w>":6300,"enaourd</w>":6301,"enoind</w>":6302,"enotueen":6303,"artr</w>":6304,"artar</w>":6305,"artars</w>":6306,"ellaarelld</w>":6307,"unishd</w>":6308,"soonseedin":6309,"edau":6310,"edaud</w>":6311,"nthia</w>":6312,"nthias</w>":6313,"oonshine</w>":6314,"oonshines</w>":6315,"tsuoedu":6316,"unoer</w>":6317,"unoerd</w>":6318,"andodden</w>":6319,"inister</w>":6320,"inisterd</w>":6321,"erdona</w>":6322,"erdonais</w>":6323,"urora</w>":6324,"uroras</w>":6325,"shunn</w>":6326,"shunnd</w>":6327,"deathard</w>":6328,"deathdartin":6329,"unann</w>":6330,"unannd</w>":6331,"unstud</w>":6332,"diseer</w>":6333,"diseerd</w>":6334,"disolour</w>":6335,"disolourd</w>":6336,"auletold</w>":6337,"aulethih</w>":6338,"illshaed</w>":6339,"illdiinin":6340,"sluaed</w>":6341,"etroth</w>":6342,"etrothd</w>":6343,"ashion</w>":6344,"ashiononers</w>":6345,"anianusanet</w>":6346,"anianusaneted</w>":6347,"talloae</w>":6348,"uiuedu</w>":6349,"slanderd</w>":6350,"slanderalt</w>":6351,"nourish</w>":6352,"nourishd</w>":6353,"unhallod</w>":6354,"aarell</w>":6355,"aatestone</w>":6356,"adoa</w>":6357,"dressd</w>":6358,"eih</w>":6359,"eihd</w>":6360,"hoodind</w>":6361,"ieatho":6362,"istaenor</w>":6363,"nurse":6364,"nileiniond</w>":6365,"otions</w>":6366,"otuean</w>":6367,"ratather</w>":6368,"soninla":6369,"tatterd</w>":6370,"uusitsuoedu":6371,"ueensu</w>":6372,"udentlae</w>":6373,"thisthou</w>":6374,"threehours</w>":6375,"annons</w>":6376,"anonut</w>":6377,"anelld</w>":6378,"anstuerlin":6379,"ousehunt</w>":6380,"haeraids</w>":6381,"haelnut</w>":6382,"orelood</w>":6383,"orhearers</w>":6384,"oreiner</w>":6385,"artrd</w>":6386,"onsortst</w>":6387,"straind</w>":6388,"lirtills</w>":6389,"hiteuturned</w>":6390,"atterurse</w>":6391,"reiousuied</w>":6392,"oeeatherd</w>":6393,"unloodor</w>":6394,"hoieuiuedu</w>":6395,"sainsates</w>":6396,"saaeild</w>":6397,"suaostinost</w>":6398,"ruittree</w>":6399,"entertaind</w>":6400,"ourtuoard</w>":6401,"aastide</w>":6402,"neihourstained</w>":6403,"arriaeda":6404,"harnelhouse</w>":6405,"sinlesoled</w>":6406,"oeranatetree</w>":6407,"osthorses</w>":6408,"husandallst</w>":6409,"husandod</w>":6410,"starrossd</w>":6411,"serinreatures</w>":6412,"ountereitst</w>":6413,"irtuoushere</w>":6414,"dellshih</w>":6415,"iihanusanet</w>":6416,"enotueensuaostinost</w>":6417,"uusitsuoeduau</w>":6418,"anstuerlinde</w>":6419}